node {
  name: "x"
  op: "Placeholder"
  attr {
    key: "dtype"
    value {
      type: DT_FLOAT
    }
  }
  attr {
    key: "shape"
    value {
      shape {
        dim {
          size: -1
        }
        dim {
          size: 28
        }
        dim {
          size: 28
        }
        dim {
          size: 1
        }
      }
    }
  }
}
node {
  name: "le_net/conv2d/Conv2D/ReadVariableOp/resource"
  op: "Const"
  attr {
    key: "dtype"
    value {
      type: DT_FLOAT
    }
  }
  attr {
    key: "value"
    value {
      tensor {
        dtype: DT_FLOAT
        tensor_shape {
          dim {
            size: 5
          }
          dim {
            size: 5
          }
          dim {
            size: 1
          }
          dim {
            size: 6
          }
        }
        tensor_content: "\371}\326\275t\243\337\273\277\013\242<MlW\275\245\370(\277{\365\233>\276-\326\276\022(\202>\205\304O<\257\023e\276B\312\347\276^\377\360\275\006\211\354\273\365\263\216>\024\252\204>\321^\253\276\025;\376\2767E\200=\021\312\216>\242\3234>\325c\372>\324\221\233\276\266ne\276P\007$?\336r\232\275\374\004\251\274\333\375\013>G\t\025\277\000\316\001\276)/\304>x\304\277\275\001J\021>0}\021>\250\003\317\274\245?\352\276\035\376\277=\331\007\376=WL\207>\022\266\316>b\212\007\277\303\232\255=k(\223\276\247\371Q?\350\354\232>\005C_?\'\226{\277)+e=:)\200<\330J>?|\261\002?\234@9?\022g\265\277\316\001\252\274>[l?s\305\245>rz\347>\360\320\232=.\343s\277\223\256\213=\37534?\025p\266\276\\\330\313\276K\230\363\275\034=>\276\347tB>\367VW\274\221B2>k\026\030\277\304\240\335>\034\036\267\277\235\024\023?\256C\271\276\340?<?Y&\030\276#\013\346>\307\306\302\277\311\302X?-\206K<\200\033\014?\232N\270>-\251\231>\347\360\031\277\264\223+?\000\352\257>%\263\304=+e\353=Q\312\241\276h=\006\276\365\2675>\016\376\326<M=\313\276\304R<\277\314/K\274\351[\014\277\010\337\346>Fp+=\344d\3739<w\221\277\310\311\240\275;e\215\277\375\363-?&\370\274\276\023\265E>9\1776\277~\302\257\276\030M\306\276\253\037\034?\377\022\225\274\252\225q\275\203\344\276=m\017\302\276\353\177\266<\253\303\241>z\250\313\275\320\231\n\277\300\001\206>Q\250\"\277e\307\342>\336\326+>\177\224h\276\373\202\266\276]\201\265\275\014\222\330\276\236X\356\276\306\223\360\275^>3>A/\221\276\345\007\346\276\327c\377\276\375Y\023\277\324\000>=\302\216/\276\333V\244\274\346Y\366\276\315\272\356\276X\036\270=\225\237\201\276DN\206\276: \263\276\257\216\206>kZ\222\276-0\351=\"\223\317\276H\301O\276;\314\356\276A2\270>\233A7\276k\373\010?Ww\211\276\364l\323\276"
      }
    }
  }
}
node {
  name: "le_net/conv2d/Conv2D/ReadVariableOp"
  op: "Identity"
  input: "le_net/conv2d/Conv2D/ReadVariableOp/resource"
  attr {
    key: "T"
    value {
      type: DT_FLOAT
    }
  }
}
node {
  name: "le_net/conv2d/Conv2D"
  op: "Conv2D"
  input: "x"
  input: "le_net/conv2d/Conv2D/ReadVariableOp"
  attr {
    key: "T"
    value {
      type: DT_FLOAT
    }
  }
  attr {
    key: "data_format"
    value {
      s: "NHWC"
    }
  }
  attr {
    key: "dilations"
    value {
      list {
        i: 1
        i: 1
        i: 1
        i: 1
      }
    }
  }
  attr {
    key: "explicit_paddings"
    value {
      list {
      }
    }
  }
  attr {
    key: "padding"
    value {
      s: "SAME"
    }
  }
  attr {
    key: "strides"
    value {
      list {
        i: 1
        i: 1
        i: 1
        i: 1
      }
    }
  }
  attr {
    key: "use_cudnn_on_gpu"
    value {
      b: true
    }
  }
}
node {
  name: "le_net/conv2d/BiasAdd/ReadVariableOp/resource"
  op: "Const"
  attr {
    key: "dtype"
    value {
      type: DT_FLOAT
    }
  }
  attr {
    key: "value"
    value {
      tensor {
        dtype: DT_FLOAT
        tensor_shape {
          dim {
            size: 6
          }
        }
        tensor_content: "\376\010\024=\356J\374<\232\324\320\274G8B>dHQ\275\316\353)\275"
      }
    }
  }
}
node {
  name: "le_net/conv2d/BiasAdd/ReadVariableOp"
  op: "Identity"
  input: "le_net/conv2d/BiasAdd/ReadVariableOp/resource"
  attr {
    key: "T"
    value {
      type: DT_FLOAT
    }
  }
}
node {
  name: "le_net/conv2d/BiasAdd"
  op: "BiasAdd"
  input: "le_net/conv2d/Conv2D"
  input: "le_net/conv2d/BiasAdd/ReadVariableOp"
  attr {
    key: "T"
    value {
      type: DT_FLOAT
    }
  }
  attr {
    key: "data_format"
    value {
      s: "NHWC"
    }
  }
}
node {
  name: "le_net/conv2d/Tanh"
  op: "Tanh"
  input: "le_net/conv2d/BiasAdd"
  attr {
    key: "T"
    value {
      type: DT_FLOAT
    }
  }
}
node {
  name: "le_net/average_pooling2d/AvgPool"
  op: "AvgPool"
  input: "le_net/conv2d/Tanh"
  attr {
    key: "T"
    value {
      type: DT_FLOAT
    }
  }
  attr {
    key: "data_format"
    value {
      s: "NHWC"
    }
  }
  attr {
    key: "ksize"
    value {
      list {
        i: 1
        i: 2
        i: 2
        i: 1
      }
    }
  }
  attr {
    key: "padding"
    value {
      s: "VALID"
    }
  }
  attr {
    key: "strides"
    value {
      list {
        i: 1
        i: 2
        i: 2
        i: 1
      }
    }
  }
}
node {
  name: "le_net/conv2d_1/Conv2D/ReadVariableOp/resource"
  op: "Const"
  attr {
    key: "dtype"
    value {
      type: DT_FLOAT
    }
  }
  attr {
    key: "value"
    value {
      tensor {
        dtype: DT_FLOAT
        tensor_shape {
          dim {
            size: 5
          }
          dim {
            size: 5
          }
          dim {
            size: 6
          }
          dim {
            size: 16
          }
        }
        tensor_content: "\257m\034\275C\036\202>\234\227\013\276\207\376\370:5~\300\276\010\377=>H\351\246;\254\247V={\261a=\275\003\032>\035f\232\276\215\031$\276T\264{\275\241\306\313<\360\306\220=\000A\354\275jJ\352\276\250\212&\276\003\324\263\275\361\222y\275\277\325\341\276\316=\177\276\270Z{>\343\264\032\275\242v\200>@k\215\276\271\222\303\275\371\n\347\275\r\024\241\275\361ML\276\205\325S\275\367\373Z>\333\311\361=\300[+>H\351\212\276Z\034\244>\230\363\n\276\272BT>\3249\"\276\211W\233>\007\004\210\274\311\266\004\276\345\013\360\275\354R\256=`\217*\275\2214\246\2742\374D>d\336*\276\306\320->Q\313*\276\260\003\r=\206\335\370\274h\317\2508\020]\250\273\025\237\260<\364Y\247=T\356\214\275w\016L\276\331\354\257\275U\244\t\276\200\263\004>\217e\346=\242\342\003\274\357\361\221\274\'\376\306\275\202\303\306>\010E9>\030}\233\2741\356\t>\013\266\317=\256\373\352\274\243\261\337=U\321\251\276\376\361\304>\302\310,\276\345C\205\275\300\016E>^\374~>B\354\201\275\036\253^\276\205\272\340\275\305m\266>\353\027\200\273g\220\321\274\"\031\016\276B`\211>\\\354\256=q\357\333\275\022V\234\273\327\013\031>\242m\222\275\220\341O\275\2424\205=\371a\250\275 \222\241=\237\025\244\276\267\031\230=\177\320\247>5\231\322\2756\247p\276o\226\002\277\252\013\332\275\tc\235>q\026\343\275T\305O<\372-!>\204 \002\276\250V\365=\021\222&>q\225\000>\355{\363>f\242P>\214\215\001\276}\331\250\276\177\323S<F6\013=\037\302\252\276\204\375\305\276\362~\311<VO\311\276Bc->\304y\016\276S\033\316>\261\215\224>-\212\035\277\251\276X\276\312\347\336<\256E\035\276\201r{<\267\220\205>w,\236\275\trA=\322,\357\276\227\343\002>\323\362?>\370{\277\275T\217\265\275\207\022b\275l\033$=\255\004F=\226\211P>\311i\033>\335\213\027?\374\343\236\273\013\336\344\275\031\017\220\275\177\330\314<y\324\312=\232d\303=Hm,>hy\330\275\232\346X>\332\270L\276\010w?\276\316\270 \276\210\010\216\272\211w\347=\364|\207=\337\341 \276\267\325K\274\253m\237\274\326]\217>\211K\327=*6\324<\221\345\005\276\231\313\017=\037\240\226\275%8h>7G\034\276+\252d>\367J\301\276\322\272\356\275\231\221\350<\377\204c>\265\033\036=\211\314,>\264\365\204>|\225\216>\202\002>\276\343\370n\276\220\330\246\276\377\326\252\274\345\365\010>\026\316\263\276J\246\230\275\200Z0=\350s\244\275\303\326\200\276\373\306\204\275\347\344\251=!\034\032?;I\027\276\316\326\263>\202b,>+\211\217\276\213\177s\276\372\265\333\276\234\317\211\276r\3131\276RH\211\276\255\242V>\327\373\241=\020,\270=\036Z\010\276czW\276\375\364\313=P\240v>\314\037\374<T[\006\276\016\031\204\276\010\217s>\306\035}\272\211\260\347\276tM\246\276!\303\235>\310\266\365\276\311MZ>\330\256\317\274i\344\301=\027X\030>\211\376\267=M+U\276M\365\362\275\363#\261<\307\200Q>\234?W>U\254M\276\222\017g\276\021\365\272\276\275\324\227\276\364\334\301=\2628\016\276\003\360\330\274]\345\201\275qn4\276>~v\276trP=\326\027S>\245\216\004?\300\233\036>\316)W\273\271\007\237\275\236Wl<\214\212\224=<\036\177>W\"U>M.\304\275\272\263\013>}\000\245\276\370W\031\276\356\245\202\276\222:G\276\366d\204>@B\340=\264\226\224\276\335-\220\276|\201\033>\231w\030>}\001\230\274\245\360\207=\304\\G\276C\231\306=\302D\002\276oi\231>4H\220>`7\000=$r\004\275\364$\004\273!\337\245\276m\207\202:\345\256\206>i\257\006>\360\215\031>\001p\266>\003\312\313\276H1\276\276\221Y&\276\023\004#\276*M\232>n?\272\2768K@>\237\300\355=\272\355_\276\253$\355\275\344}\016>\0205\036={3r=\204\0322\275o?\257\274\272=\016>\363\372\030\276\261C\267\276\361B+\276\201\301=\276\231\326\333>\263\005\000\277F\256\272>\247#r>[6 \276\356#A>\014\335\254>i\372\365=\023F\367\275k\363)\276=\342\220\276\216\t_>\264n\030>m\241\244>\217\305\214\276\t\017\237\276\215C~?2\373\000\277G^\n\276m\346b\275\027\003Y>\013\260\002>\"j\026>Hg@>W\371\247\275\205/C>=\305\007>[y\242>\236\3274\276\273\376\276\276\206@k\275\213\031\214\276\263\236\241>rI\204\276\355\333\">\237\201J=6\2122\276\021\265+<xR\274<f/\231>n\213\004=\357\362\352;\031tW\276Z\250M\276\r\035\226=\377\\^=\353\234[>\003]\343=\271Nx\275U$\250=\027\376\300\2762s\021=I\005\024\276kx\201=>\336p>\3723\325\275\310\373\177\2768f\207\276~6\202>,b\305\274\035\264\333\275\315d\361\274\326\333&\276\341+\273>\312\025\204\276\356]\022>\0326\313>\265\254z>Y\245@\276\317\345\220\275\334d\037\276\214\303\243\276:\251\244>\"\210\253\274\2225\002\275\245v\213>~\204\007\276\346\241\317\276b\253;>\376\314\216\275\274N\004?\022\304\241\276T\201\210=#\375M>>\373\000>N\313\213>\346N/>\214W\333\275\311\342\310\275\023Y\352\275\363*\252\276\334\316\204\274y\003\331>\346\215\330\276\237\302#\275)\250\033\276\341\242\231>\3203\303\276L\230\256\276\276+\204\275\nb\246\2760\2144>z&v<z\014\251=\204 t\2760U\'\276N?U\276\\\030\267=*\260\321>%\277\343>\327Q\351\274-\2745\276L\341\233>\335\277\307\276w\236\325\2767U\314\275\rl\316>o\225\274>\253\342\350\276J\211\215>+k?\276\332)\317=\201x\225\276U#S>{\0369>YO\266\276\320\206\271>6\3662\276\204\243\263=\257\023\204\276e\262\272\2759\335\306\275r\351\'\276;\261\225>c\241u<\350#\017>\370\244\021\276\024\211E\276S\356H\276~\303\034\276b\264\256=\016j1=\322\375\200\275\272N\374\275/\001\024\276Kf\202\275|\332\t\276\245/\311<Z\316\017>tHv=\206j\302=\024o\021>\353\221\003=\r\246\333\275\275\351j\274W\243\260\276\277KS\276\375\243\013\276\276a\277\276i\277@>\265CP>\317\273,\276=fE\276\315\014\273\275\303\221\031\276\343\013\307\275\023\355\002>@\003\254\276n0\276=J\371z=\003ON\276\234w0\276\301\217\237>x\205\244\276\331\323\254>.\006\r\276;W\010\276.\300\005\276\344\263\365\276my\240;JF\230\275\n\351*>\272\016\236<\247\207H\274C\276+\276F\337\311\275\246o\032\276@\324_>\277\240\303\275zP\232\275\236xe>\016_9=\264\233\013\276p\033\341=\210\221\271\274\203L\220\274\347\352\301\276\364\"\341\276\235\356\272\275X$\273=\320mX>\350\305y>@u\337\275\247\343\032>\277\330\341=`\315\334\276\256\022\\=\376$d\276\336[\363\274\277\225\243>P\251:\275\013W\211=3\253*\276\nU\223=\236\321\303\276=\024\243\276M\347\202\274\236\3324>\271\330\023\276o\006\223>\327D\207<\223\200~>RQ\231>\270\303\004>,\276#\276#\177!>\3522\257\276\215WY\275\t>^\276\nD2\276\334\325(>\317\224\016>\007[\217>\260\330A\2764\031F>\347\326\305\275\244\334f\274\246g\212\275\325\356Y\276\016g\005>{\310\003\275\234\276.>\006+\373;&\2478>\202I\314=\333`\244=\t\033\031=\363&1>\277\265!>\202\211\324\273\031\024:\276k\"\310>*\206\374=\245\274\027>q\351A>O\302><\021T\252>\371\213\000\276!\010\250\274Sj\237\274\220\302\254<\263\272T\276h\227\200>`\020\267>\257\'\200\276\354\242\211=NHj\276\232\010\213>7\306s\275MZ\376\273\350^\273>\247\330)<\3733U\274\253!S>:)\211\276\033\ru\271\363\233\254\276O\262\372\276[#(>2\200&=\253\340\205>\264Ex>W\250#>\245O\246>\356O~\276\351\205d=\001V\034?\222Xa>\211\213\355\275zT~>\252\200\214=\317\004)\276%P\214\276\216G\214\276\242\210\201\276\262\221\256\275A\224;>\307w\037\275\307\213\247\276\327=\"\276\342k\000>\037\326\265=\257\322\031=\236\032\240\276\002l\330\276E\372K\276,9\020=Ul\230>\221\360>\276\336\2175>Y(\'\277pbH\275\205_V>8:a\276V\372A=\317\267\353>\312\'5\276\337\230\310=-i\317>\004\227&>\027\231\004\276\374\272(>Yd\332\275\276\371m\276\311\016\216\276gV7\277\336\237\361=\017\t\272\273\'\261\001?\311\002\323=\223~\232<\236|\304\275p\200\277\275)\322\263\275\277=\240\275\374F3>IQ\245</\251\344;\215f\236\275\275\300\205=I\306\355\275\200[^=\232\260\227>|\251\222>\260F\207=\215\024U\274\251\225m>g\222\212=Y\364\'>\321\244\221\275\337M\322>K\342\353=n\252\276>\235\275@>\272\033 =\013\224\263\275\033}&\275x\2623=K0O<\266\377\342<\031\025\030\277m\220\320=\367f\343=\272\307\253>\272W\271\276*\225\'\276\275r\246>O^\001\275\207$B\276\177E\020\276n\243P\275L\034\302\275\321\337\377\275\364\246\010\277\213|\223\276\025~\301<\335K\335>\241?e\276\270\253\325>\224\032_\276F\005V\277x\342j\276\037\360\020?v\177->\370\267(\277\203f\206>\014\235,>\366\372\356\274\226\037\362\275(n\014\277\303\320\320\276X\344\321\276s\032\">\\\251\204\276\254\335/\275\343\273.=\266Z\270\276\2218v>\327\272\332\276\022fE\276i\251\025\276$E\267\276\013[\336\275\241[\301\275\\\274\224\276\371\246\274\276\351\254\013?\2162\253\276\253K\022?Q \207=W=;>P/4>\365\311P\277\320\375\240\2764\316\357>$\200\316=\233\037\312\2765\343\030>b\2264>P~P\276CX\020>\001\262)\277\032\365\234\276j\250\365\276-\276\242>^O\204\276\241CV\276%E\025>\3166\217\275\036/E>\217b4=\034\202+=]\030\031>jy\002\276\253\010\204\275\214\335R<\034\271\006\276\364\221\246=\363b\355>Y\226\270>\303\242\017\276\346\336\343\275\275\344l>\263o\266\276\027iD>\350\036\245\275\'d\314>\304p\204>J[\033\275\370Lm>\017[\353=\360\016D>\0377\300\275\362\340\302>|S\001\277Q\236\010=\362\226\334\276\203\327\264\276\223\244C=\322\227\333=\247\256C\277X{\272\276x\330\202\275\352ks=\3420\037\276\325\203\371\274\212\'2=\236Ow=fJ\353<\237\342\000\277\032v\206>\020\242\306\276u\267\254>\007q\235\276:\331\034\275\204\257\325\276\224\265Y\2770\336\322\276\316\365\244=\2779\343>5\271\034>\003\347\315=\267\017\305<c$f\276\266\235\246\276\005\361\335\276nl\345>g(/\277:Y\036\275?q\371=\375.k\2760\231\002?|\215D\2777\234=>\256N\321\276,\225$\275=\370D?\277\330\223\274-~\332<\330\346\343\275\350\201G>\212\300\025\2776\263\247>\331\366!\277\204\370\223>j\017d\276\326~\361\274P\315\'\276\221jL\277s\005\035\277C(y>\222p\200>\375\201t\276o\244\340\275\315\271\207>\304\250\267\275\331\375(\276;\"\375\276y\n2=(en\277\312\316g>$[\036\275\2150\254\276\263HL>\305\035\225=\224u\320=\361\265\320=\013}\232\2763R\243>K\237S\276\364}&\276\246U\017\276E\364.>\267m\200\274\215,\372>}MZ>\350:-\276\2718\031\276z\255\001>\224\236\261\276\2017\220=-0h\274\360p\335=dJ#>\0012\225\276\363\340\241> \306\222\276]\251\205=\257Y\323\276\356\322\316>\203\267\211>\215\320~=1b\232\276~\344\035>\376\356\353\275\373\233\233\2755\202\033\277\032\255\007\277x&h\273\335\212V>\031y\257>[u\356\275[\235\206=\022\274/\276\255\034\322:8\230\352\276\004\334\n>S\341\020\277\357w~\275\034\346W\275\320\243\002\2754\263\022\2768I\250\276&\342\336\276\226\302\251>\2318>>\251\216\321>\346\n1=#\024\206\276\306\357\005\276\264\201\263=#\236\244\276,[^\276YQ\336\276\257\0261;\357\031\033\276\253V\210\273\014\373\230\276\333\005;\276\021\212\237\275\037\251(\276\372m6\276\306B\334=7P\230\276J\224\261\276`\341\225\276\0049\001\276_\262\310\276\3752\330\2761`\t\277T\235\004>\344N\211\276\304\341\205\276\005\023\310\276l\266}\276\355(\352\276o(\243>\005\207\004>_)<=h[\005\276\267\036 \276\372`,<\353\232\201\275~\244\331\276\025$<\275|t\'\277\330r\t=2-?<\335\002\231\276\327\265\217>\34611>\215\313P>\025)\003\276/\006\222\2761\330V>O\037\367=\r3\205\276\370\304\223\276\245\213\275>E2\330\275\022\377&>\352\206B>|\017Q\274\216\0136>\367JF=\372\031$\275\314\370\212\276O(\351=my\257>f\226,>\306V|\275\030\337O>\271 V\276{\233%=nY\000>\362\361c>\243\020\231=\363{@>g\356P=\313Cv>_\215\212\275@\371r\276\374\242q=q\031\262\2767q@;\223\034\337\274N\270q\275j\004\356\276yI\261\276\311\346\262\275\272\265i>@\224\n\276\001\357Z\275\305\363\017\277\363s\027\276W4\273=\206\302A>\n\336!=\204\203\235<\3347q\276_\0042;\263V\317\275{\246I>\345Ae>$\246\230<T\374-\276\367\207\271=\203\242G\276\315o\334>\017\202Y\274\254\361%\277/\326\265>h\360\002\276t\023~\276,\210\337\275\247]\245\276\256\333\225\275\303\013\274\273\"t\346<\r\'\227>T>\332\275r\2167>\205\357\245>\314\363\n\277_B\342\276\363\356\370\276\373\223\343\276B|\354\275\215\004\031<]\314y<9\203\314=O\023\031\276\214{F>w\324v\275\306l\032>\236\242\204<\006\004\265\275\270\250d\276\206\356\016>\320\244\n\277\031\214\007?\'\344l=\033z\277\276{t\261<\341^?>iK\233=\275>#\274uh\230\274\256\271\200\276+\3175>\234u\003\276\332\353I>\030\304r=\234\'\313>T\277\225<\020\017{\276\327#$=L\336U=<\3004>\204\001>\273\205\t\355\273\273h\241>\250SX>$\275\320=sX\221\276Fe \276%\215\036>\224_j\276\005a5>(\226E\276\256d\227\276\3014\026?\346p5>\272\014\\>i\016]>\207+\020\275M\370\'>\265\001\030>\2502\322=PO\\\276\245\360x>\244\231\246=\337\274\317>\003\253\323>Lm|\276i\224\"\276#u#;T\336\212\275w~k>n\240\311\275\'\210\027\277\244\260\240<\373:H>~\377\204\276\036X\355>i\367\216\276\014,\362>\343\2240>\005\374\200=\367\233\023?\315\213L>r\004u>\323\021\225<\341\360\367>\333\2155\277*FV>t\232m\277\232t\217\275\365\316\t>}t\033\277\220L\304\275\031\273[\276J\177\346>{\001r\276\366\376p\276\241!->\203\213_\276\244\336A==\224\206\275-\006\240\2769\210\332\276\016y\336\275M\367\224\276\3525\240\276\341-g>*\2514<\002\341\252>>z\263\276>\325\353>\0247\n>\227@9>\201\006\242>\007l\025=\236\217\224\274\353\'\237>\211\315\220=v`\003\276[\304\230\275O\274,\277\367\251\250\276\366b\271\274?\252\220>\304\336\252\275;\2006=\372uV\276/\206\005>lQ\271\272\027\247o>\270\202\234\275[y\206>\331-\272\275b\221\206\276\324%\323>\201d\271=\237\376\026>\035\242\256=(\224\025\273\366\253}=\007\371\236>1D\371=\242\361\316\276\340\250<\275\222\314\244=\265\366z=\340U\230>3\354*>\247G`\276\350fo?\337\347\266\276\357Hn>\211\374z\275\326\002\001\276\007\222X>\242\234\216\276\232\320\200>B\236\250\276\037\021#?\216\034\t>\3344\242\276\247\257\024=\344\367\350\274,\217s>\203a\222<\'\033\336>Wc\032\277\314\362\001>\265B\241\276T\221\273\276\315\244\325>x\231#\277\240\353\304>?\224\217\276\362\306\226>\300\225\262=\031\204\001\277\355Rp>\347\\\252\274\247\343P>y\306*\276w\327\'?.\341\316=\304\206\332>\311!\332\276C7_>\315\006\332>\360\360\343<\325\300\274\275r?\334\276fz\300>\304\340\352\275uN\340\275\376\314a\276*\352\217\276+\200\276\275\261\330>\276q\276\030\276\267\005A?\324AH\275\325\223\024\276\300\340*\276\277\312L>\353\270\212\276\2335\364>9\223\315\276\2159u>\330~c>j\240|\276n\260\242:M\204\244=brY>\221\r\030>\022\347\222>\360\257\307\276\230\026\232\275\310\364\274\276\317\3366\276\032\317\301\274\026\313\276>\032\350Z\276\377\366_=\\(\355\275\211\261\353=1\223\305=h){=t\357<\276\004\214\306\273\027`1>\300\007\254\276\211\014\017>RL\227\275\222\030x\275\273\217\216>\230d\200=\237\002P\276\n\267\245>\204\224\275>\022\217\247\2764\357\266\276\325{_\276c+\">\336\221\007>M\244S>\253\354\362\276P\221`?\261\324J\276\217\312\005?q\2408>\352%\231\275NKg>`\355\220\276\273\202\245=)|\260\276\335}\220>\261M\224>\223\362\323\276\333\000\207\275%\0330\276\334\340\274>\036\201\337\275\225\247\274>\357Y\372>\217\226\201>3a\t\276\350\355S>\212\362n>x\274%=\374\327.\276\235\272=\276\252Lk>\274:\004>\246\200\243<)\2751>\257F\246>\274\317\264>\007\022<=\262h\341>\203:\356>\336\020\030?\255\234\253\275\334\206R>$:F;+\336\357>\231&\016\277\345y\006\277/\270\035=\265\254$?\014\n6?Cv,>\037\274&\276 \337\226>\357U\007>fG\212\276\007\371\233>\357\254/\276\316\305\005>~Yh\276\253\366\261\275\025\021\211\276\223\262\233=\351\333\251\276\216\035V>\005\254\251>pE\223\276*T\342<Z\014\034>\347\370\245>\344\366\341=/\377\341>\350H{>\005\353\313>\'K\217;K*\003>\237\354\243\276\207\252\251>\375I\216\275&l\257=t\224\201\276\263\231$>fv\324>\005\377\225=\367\356*\276\020\016\271=\367\2340>\351d\303\276\262\321\017>w/2\275\360\267.\276ue\n>\001\207\265>\255\010\352=eG\212>z\307\253>\035\212\274=(\246\017\277\203\203-\275\214\333\217=\222\305\354\275\365\361\000\276z\340\365\2755+\037?\361\313\344>w%\020?\027\345\027\274\243\327\236>\366\311\247\275\031\323\311=v\376\257\276\347\'\244\276\357\237\237>\'\324F>5\371\022>\376\n\355\275\323\265\013>-\037\345>]\342\234=\324\'\330=\377\n]>\203\336\363=Fw\231\274\303\356\371<x\354\276\2760\034\013=\320\rc\276\256\351\331<\273\032\335>iE\275=O\002\226<\320\304k>\234\316\213>\373\322\036?R\031\212>hGB==\277\225>PY\237>\263\366\344\273\236\304\n\276\301\350\211\276\321\014\216\274\007YK\277\010T\025\277\361\256\032\276\203\201\313>=s\207\276\204\020\273;ws\377\275\222+s>\023\225\234\276\003`^>2\342\206\276\376!\234\275@\314|>\345/\203;\241\037\266\276m\200 =F\324X\276\3477\265\275\356\344\300>\007\344\r>\302w\245=\337$\016\275\324\260\270>\363\231\362>\252<\254>\352\336(>\240\247\236>LR\276>-[x>x-\t=4\252(\276d;]>Ud\227=S\345\365\274d^\265\275\030\354=>\213\251/>\357\224b>\212\200F\275\'hP>)\0252>a\365\333\276F,\337=\016H5\276\361\330\207\274.\307\324>$m\212\275\246XW>\033\331\252<c?t>0G\361=\362O\367\276\354\221\r>R\361\255=#6\361\274r\370\031\276{\235\203>\252e\317>\3530\200>\305Rf=B:\202\276h5\036=\267\325%\276_%\303\275\370\323\014\277\360-\377\274\353\203d=\2453\230=\333\026\252\276g\000\300\274<\277\r=\353\255\004>0\260\032>\352\277\013=L4\200>\017\3261\276\0106\327\275R\367Z=\001D\223\275NrH>\2663\235\276\324\277\273=f\021 \276\377t1=\367\276\n<}*\022\276\306\347\024?O\002\200=P\"6><\021\000=M\221v>\3735j=\324c*=\363\315:>\ne\240\276\340\013\272\276\263^\365\276\344 \256\276\351\355\356\273Q*\034=Z#&\275\223\3066>\010\254V\275Aa\267\276i\225G<\025\320\365\275L\003\342\276\211\354\013\276\013*\225\276%\032\005>\320\"\220\275\346e\202>\353\376\352=T\317A<\352PI\276\244\031z<\232\350y=a\251F\275\216\300\177>^\2454\276\230X\237<%Uu>q\037\331>`%\245\273\234\356\023\276|\"\257\275\217\211\244=S\312\007>W\004\325\275y\'\r\276\355\0142>\331\375Y=(+\243=W\335\'>\234\013\033\275\t\316\340>\255-.>Ed\244\276\214\255\200>\216I\r\275\362+\307=k\265w=\014\325\201=\321I\334>\021\275\252=\207&\027=\342z\016\276\377\240\205=b\254\253\275[\354n\276\203\020n\275\301u\236>\346%\206\274\177f\222\275\363n\025\275\376?+\276\360\340\242>\306\001\206\275\307\241r\276\027\025\303=\254\n\001>b\261(>\324\357\217\276!\274\310\274\276\235\233>=\217\217>H\301\246>\252Q\035>j\243\234=4xn>\271\336\214<Rk`=\\\254\272\276\271\354\234\274\244\020\320\276\231\3077\276\025\276o>^\261\335>\202\274G\276\204\3009\276\2513Z\276\025\276\376=\233z\362>\363\232~=yxN=\276[5>\013\3012\277\335A\246>\314\256s\276\366\315\310\275Y\307i\275\326\344\355\2768g$\276eH\002\276\343\376\215<\245=0\276(xf\276\014\364\034>\321E\225>\315\356\237\276U\"\306\276\216\256\305>=Fm\276\357\247g\275\230\255\202\276#\250\322\276\004\n\246\276R-\000\275\311d\226>L\364\237=rS\355\276\3061\336\275]e\215\274\352\240\251=\001\366\033?\370\246X>j\343\266=\240\007\223>6T\272\276#\325\270=\250\324R\276.}\225\276P)><\257U\221>\242J(>n\311;\274Z\365\006>\004u\t>bT\217>:q\251>\370\332\246=\332S\273>\210&\033=\247\375F\276\037\214\254>\'\201\311=\300$\323\275!7V>(\321\304\276SB\301=_\241\204\2744T%>k\220\357=f\372\221=a\207\027\276\223\034\305\275\276G\307\276\230\351\250<x\2103\276)\223\243\275\177\254\235\2765\271m\275J\273{>B\036W\275\267\265-=sT\330\276\004\250\247>\313u\347=\300\036G\2767\343\237\276}D\254\276e\3578>\235\253\306>\013\243\243\2730~\347<W:\231>\330s\357\276d3\301>\235\2305\276\333\267\223\275\372\221\230> \234\247\276#\010\000?\221\201\220>\257f\225<\353\364>\277K\314\374\276\257X\001\276\'bx>\006\357\202\276\272\"\243=\364]S>Z\215\302>n8\240>)\261e\276\031\352\026>\221U\002?4\347\013=\265\307\037>\223k\025\276\221Ij<rx\324\276p\324\016\276\234\331x=\337\342\361>\243A\204=\025\255\365\275+\000\177>9\242\252>J\323\030>\317\304\277=\226\030f\276\252\030i=\341.\231\276\341\273\363>\026\303u>\033\317\332\276\265xH\277_j\037\277J{P\275\270\214\024?QE$<\326\2263>\017=w>\352XN>^q\247>u\326-\276b\265\261=?\213\364\272\215&\337>RQ3\276\r\377\340\274at\312;v\253\232><:\230>\275\035\207>\022m\240=]O?>SY\004>\202\010s\276/G\202>\014;\243<D}7\2768_\274>WmE\276l\003_\276n^\244\276g\031\202>\255\023\273>2\"5\276\334>I\276\313\342\322\275Y\330\345\276\323=\354\276y\227\322\275\224Hn\276\203d\006\276I\250\204\276\245\246\255=*\006\262;3~\345>\3120\376=\224U,?\334e\215>]S \276B\223#\277\020%\271\276\251}\241<\345k\226>zW)\276\303u<>\371\017\257>\352\356\017?\010\361\255>\005\230\274\275\200\224\300>\341:|>\371\203Q> s\255>A\217\245>\377J\036>}[<\277\345#\n>\213\372)>h\301U=\245Y\321\276\226\002\342>#|\253<w\254\207>0\226\263<\347#\372\275_Z\267\275^\252m>\312\225B>\316\\3>\252\311\261\275\345\375\332\276\362\370u\276=\0328>N\255\253<\262\303\374>\003_\304>\024\333\003>\353\240\222\275X\302s;\005\010\267>^\313c>\374\2217\276\363c\">5\246+>\nr\200>8~7>\200\035\305=\213\314Q\277\237\322\331\275\311\264\305<\257S\032>7m\216\276\024Q\206>N}\222<\275\362\212>oMq>\341\372\215\275\322\241\274=:\030\005>%\334U>C\251E\276\241Q\025\276\3122F\276\251\252\261>\224\025F=\224\331\341=R\\\003\275\236\357\210>\270\365\262\275<\334\206\276\255\262\024\276z\374\337\275\266\200j\276\306\032\242>\027]\216\275U\350\020>d~\210\276\337\234;> W\263>\203\002\343\275\025\376\356<\3214\256<\010H\273\276\326Y<\277%f\215> \036\257\275\354\033\204>p+\006\277\264\363\213\275tK{\276\325\023\262\273_S)>\366o\270>06\211>P\246\240==K\341\276\255\376$>+_\236=\307\223\333=H+\377\273\261U\334>\206{3>{\221\263\273~g\251>\217\271\246=j)\010\275\311\257G\276\362\343`>\237#\367;`R\276<\2309\025>\373/\233\276\027\221\277=\021\004\244>\020h\022\276\007\344\241\276m\362q>R\277;>\t\357\334<\226\355\204\276<\255\253\2751\351\225>\367\024\306\275[t\031\276\007\345\357\276\3273\035\276\270Ed\276J2\210\276M/\323\2765J\277\273N\324\247>\321Y\251>\001\2666\276\037a\305=\261S~\276\326\311\232>\301\266\273>\213\034\210\276\017*\263\276\336\362\324>\002\246!;\310\242%\274l\216\316=\"T\267\276j\302|>\254l(>\001\334\242=\\\302\274\276\220\312\244>\371pP\276\226\230&>\366\333\312\270\224\200\013\276\271ou>\002\000\205>v/\036<d\217M\276\251\036\334\2757\032\247<\263,\364>\003\263\t\275\014f6>IF)>x\320\'?\206\247\223=\236y\t\277=\357\362<\323\345\217>\032w\246<\333\242\025>P\233\002\276\323\nk>\207Je=h\210\374=\261\2334>\202B\202=\001@\203>\005S\351=\326Z\017\277Z\216-\277)bT>\037\327\005>\226\323\322=\304D\371\276|\035H\276\300\266\357\275&\303\254\276\n8Y>\264\266H\276=\342\254=,n\'\276$\361\215\276\234\363\335\275\211J\362\273e\232%\276\2704b\276NS\207\273|\265@>\314;\016>\374!\266=)\306\010\276L\271\213>\002\235\224=Zy\340\275\312\246\243\275\265\270+>\204.-\276-\n\030\274V\r\336\274n\325\036\276\203\222\274\275\272\255\227>\326\223\241>\341\201~\276o~\001\275gz\237>\313\006H=IZ\365<\220\016\212\275R\363_\276\244\373\037\276\220\361\247\275\224\335\245=\365m\215>;&y\275\221\013\225\275\253\364==\327\222\210\276\345b\321=K`c\276\031\370\203\2768Nt\274{\023\'\276\010\273s>5\234\n\276$\235\312=nV;>\324\207\035>\323u,\276\321q\017>\206\205\034>\246\270;\274\217\251\372\275\260\265\342>*R\264>J\303(\276/\324f>\026Y\250>\225\312\t>l\221\223=T\312\307=\201t\253=\276\002!>iG3=\372\250\t>U\327L\276\312\322[>\010\303\002>v\201C\273N\241>>\231\026,<\231\273\361=*\033#>\274(\002>\226@\232\275\t\303\200\275@2\\>@\323\177>_a\005=\302hO\276\372\335\010\276\030\237\227\275Z30=\366\210\034>\253\373\213\276D\307O>e\250_>\245\350o\276\372i\234\274i\233\330\275\2113\027>\212\310H\275\363\217\316\276\030\334\334\273\214uI>$:\323>\224 \254\275\311\2425>j\377\263=\331\3604>\363\347\361\275\321\030\220>nI\200>\313i%=9K\246\276P\373\273>\273KA\276L#@>\242\027\260\276\273@\363\274\027\362.\274C\376\246>\0226Y>l\3433=\264\247F\276\010\310+\274\352p\362\276\037x\'\276\315B7=\367\200O>x+\300\276\002s\237=\266 \240\276\372\264\223=\301\026\304\276\221\232\025\277\367\017\003\276\221\2518\275-\212\312<\202\244\252>\222\271\347\275_\t >\376\206\272\275\036q\340\275\177;\'=\342)\322\276\313\006\\\276J\352\026\276\361:\351=_\000\213\276\023l\245\276[l,\276C\343\220\275\006F\231>h\303\217<x\306\301<\274\307\013\276\307\'\267\274\234\221Z\276\320l\350\275ng\303=\227r\307\275\361\310\211\276\236\362#=1wq\274\020#i\275\225J\010>\302\376x>\323=l>\227-\252\274\2721\"\275\300\234\240\274\320T\232>\227*\231=\027\341\236\274\321\215\245>J\313%\276\362\023\215>\356r\316>%\364\267=\314\355@\276\306\205i>\224\257\205=$v\375=G\r\006\275\364SR\276\345\225\236>}\277\006>s\327\272<\034<\r8\356\304\226\276\273\244\000\276\206\207\376=\325]1>q7G\276-\225\374;V\243B\275x\336\250\274\217\210\024\276kZ\005\276\346}\333\275lE\235>\022br\275ey\270<\367t\263\276\341)\206>\304\024\031\276\014B\232\276 u\361\274\241\2346\275S\351\033\276\375\246#\275\370b\005\276\216\331#>\336\312\r\2767\212o=-\317\205=\306\256(>\023\205a>;V\332=\031\n\252\275\330JO=\237p\270\276\206L\247\276\360\201\256\273\301#\273\274\361\020\213>\317\271z\276\020\335F\276\315\265\233\2737Q\265=\001\200\354\276\002p|\276\201\374\376\275\177#6\276\000(\325\275\344J\273=\344\\\224>HSF\276\003Q\366\275R\307\313\274\013\256\333\275\213!\030>\271\375-\2762\\\261\274\274c\017\276\000\212-\276\037\006(=99\321\274\033%\227>\301\356\216>]\373-\276\364\231\275\274\235F:>\304m\305\276\3735\013\277\306M8>\371#(\276\323u\204=\351\212\300\276\250\330z\276\035\207[>\206hw>\r[\305>\317w\314=\303\230W\276\341\005\221\276R\200\375<|\255d=G\335\\>\303\023\"\274\350\n9>\275\307\270\274\275\347\265>f\254\243>z\252{=fM\220\276g\370\247>\301PT=\243\334\344;\346\321L=\336V\306\274O\261\214>\200T\373>}\016\363=R\231q\276\224u\263\274\334\023\027\276(\234==\232{\270<B\241\340\273\2011W=<UT\276\224Z\213=\205DD=\036\331\215= \360F>\302\371\260>\002\270\364=k3\273\275[\343\'<\363\241\205>\003?h\276=\336\026\277\213H9>\312\354t\2754\005.>Q\344\322\276\346\366h\276\322`\325>`\246J>\207\250\002>{\366\377=\232<\353<\2747\214<\016\316\026>\347\301\303=\302\237\376<\004\325$\276\036e\003\277\306{\002>d\016N\275\217\350\302\275\024\217\222\276\037R\243\276_fd>\236_8>k\006\337=h\260\211\274\001\253?\276\001\\\211\276]\347\305\276\217\251\276=\371\265\r>\345\037%\276U*\020\277\206\234\331=\200\014\374=\tS\n\276]\301:\276\253\324\"\275*LY\276\364\257j>\273\374p>sv\265\274\357]\003\274c\327\260>\342\257l>u\347\261>y\3715>\215\271\335\275b\0262\277\262DH>\224U[\276\345A\250=\236~\373\276M\025\301\276\320\037\206>\371\375\201>w=\203=[ZH\276#\241d\276\220\275\243\274E\204A\276Q\241\315\275B\226\377<\240gL=;\230\223>LK\336\275\337\333>>\336\355\212<\231_Y=n>\034\276\212\3455\273kS>\276TF\262=y\260\244>\262.\251=\252\344\006\276\034S\367>\007\235t>\367\021o\276!w\247\275,-\010>\036_\341=\230\263\230=\366\226\301\275\017i1>\t\"K\276\007\235\034>\002O\223>\301I\t>P\334\244>\t\275x>\003q\027\274\244\361\330\274\177\215\203=\361:\222>\332\007\262\275\343U\017\277\037?V=\356\202\266=\034\264l\276G\354&\276\264\361\305\274\240>z>Dh\014\275p\366\013>\220\223\346>\271J\177>\350\227\253\275\"\r\250<\352\220\375\275\325D\265=\327\313\r\275\024\334\333\276\330\231c\275\337$\365=\\\247\247\274,\275\264\276\265\346\224=\376\257\310>\024\3772>\2475o=\305\000\245\276\320\305\353\276\253\253\327=\355tI\275|]\306=!a.>}\310#>O\245\215\276\"&\000>\246\004\234<\343\037N\276\375\273\005\276\241p\326>x\t\331\276\343[G>\263\201\210>\252p\202>\3341`=\003\361\316=\022$\324>z5\022>Q\343!>y\036\303\275\215\353!\277;\220~\2769j\241\275X>\227\275\230\3162\276O\370Q\276\341\017\r?\362\323/>#\273\037\275\222\346\311\276\211\031\002\276\345\177:>GHj\274\027\303W\276\034t\215=\331VO=\3738\t?_\267?\276\0067\334<\375Y\220=\037\314\255>#\333y\274\312-&\276\2669\006\2762\n\272=h\335\000?\3213\022>x\356\331\276\253\037\023\276Q\315/\274`\213\264\276RwS\276\376a\027\275\310\275c\273WH\302>x\236\246>\333>\003>\002lQ\276\226\234!>\242\232\r>D\203{=I\214\222=XM\303=\211l\250\274\216\007\333=\314+\022\276\307iA>\2745\221\275\277m\245\276\260\262\244\275\264K\355<`\277\306\275V\254\356\274R\324;>nG\211>"
      }
    }
  }
}
node {
  name: "le_net/conv2d_1/Conv2D/ReadVariableOp"
  op: "Identity"
  input: "le_net/conv2d_1/Conv2D/ReadVariableOp/resource"
  attr {
    key: "T"
    value {
      type: DT_FLOAT
    }
  }
}
node {
  name: "le_net/conv2d_1/Conv2D"
  op: "Conv2D"
  input: "le_net/average_pooling2d/AvgPool"
  input: "le_net/conv2d_1/Conv2D/ReadVariableOp"
  attr {
    key: "T"
    value {
      type: DT_FLOAT
    }
  }
  attr {
    key: "data_format"
    value {
      s: "NHWC"
    }
  }
  attr {
    key: "dilations"
    value {
      list {
        i: 1
        i: 1
        i: 1
        i: 1
      }
    }
  }
  attr {
    key: "explicit_paddings"
    value {
      list {
      }
    }
  }
  attr {
    key: "padding"
    value {
      s: "VALID"
    }
  }
  attr {
    key: "strides"
    value {
      list {
        i: 1
        i: 1
        i: 1
        i: 1
      }
    }
  }
  attr {
    key: "use_cudnn_on_gpu"
    value {
      b: true
    }
  }
}
node {
  name: "le_net/conv2d_1/BiasAdd/ReadVariableOp/resource"
  op: "Const"
  attr {
    key: "dtype"
    value {
      type: DT_FLOAT
    }
  }
  attr {
    key: "value"
    value {
      tensor {
        dtype: DT_FLOAT
        tensor_shape {
          dim {
            size: 16
          }
        }
        tensor_content: "\322\203\201=\357\365@\276t;W\274G\001e\276\007\rO=X\230A\276\0274\022\275Gl\214;;\017\342=\234U\216=\264\214 \2746\336\233=\324\031\371\275\300\006M\276J\261A\275zg\275\271"
      }
    }
  }
}
node {
  name: "le_net/conv2d_1/BiasAdd/ReadVariableOp"
  op: "Identity"
  input: "le_net/conv2d_1/BiasAdd/ReadVariableOp/resource"
  attr {
    key: "T"
    value {
      type: DT_FLOAT
    }
  }
}
node {
  name: "le_net/conv2d_1/BiasAdd"
  op: "BiasAdd"
  input: "le_net/conv2d_1/Conv2D"
  input: "le_net/conv2d_1/BiasAdd/ReadVariableOp"
  attr {
    key: "T"
    value {
      type: DT_FLOAT
    }
  }
  attr {
    key: "data_format"
    value {
      s: "NHWC"
    }
  }
}
node {
  name: "le_net/conv2d_1/Tanh"
  op: "Tanh"
  input: "le_net/conv2d_1/BiasAdd"
  attr {
    key: "T"
    value {
      type: DT_FLOAT
    }
  }
}
node {
  name: "le_net/average_pooling2d_1/AvgPool"
  op: "AvgPool"
  input: "le_net/conv2d_1/Tanh"
  attr {
    key: "T"
    value {
      type: DT_FLOAT
    }
  }
  attr {
    key: "data_format"
    value {
      s: "NHWC"
    }
  }
  attr {
    key: "ksize"
    value {
      list {
        i: 1
        i: 2
        i: 2
        i: 1
      }
    }
  }
  attr {
    key: "padding"
    value {
      s: "VALID"
    }
  }
  attr {
    key: "strides"
    value {
      list {
        i: 1
        i: 2
        i: 2
        i: 1
      }
    }
  }
}
node {
  name: "le_net/flatten/Const"
  op: "Const"
  attr {
    key: "dtype"
    value {
      type: DT_INT32
    }
  }
  attr {
    key: "value"
    value {
      tensor {
        dtype: DT_INT32
        tensor_shape {
          dim {
            size: 2
          }
        }
        tensor_content: "\377\377\377\377\220\001\000\000"
      }
    }
  }
}
node {
  name: "le_net/flatten/Reshape"
  op: "Reshape"
  input: "le_net/average_pooling2d_1/AvgPool"
  input: "le_net/flatten/Const"
  attr {
    key: "T"
    value {
      type: DT_FLOAT
    }
  }
  attr {
    key: "Tshape"
    value {
      type: DT_INT32
    }
  }
}
node {
  name: "le_net/dense/MatMul/ReadVariableOp/resource"
  op: "Const"
  attr {
    key: "dtype"
    value {
      type: DT_FLOAT
    }
  }
  attr {
    key: "value"
    value {
      tensor {
        dtype: DT_FLOAT
        tensor_shape {
          dim {
            size: 400
          }
          dim {
            size: 120
          }
        }
        tensor_content: "X\300\264=\2023\341<\336$L>\275\266\322\275\327\365\232\273\013\230\030\275V\274V\275\327\235_\276\016\333;\275\347\222k>\007S\242>\262\202\t>\277\351\260\275\202\232\324\276\350\262\230\276E/\336=D\206}\276\365\334\234\274\005\304`\276\024\262\211>x\370\000>\316\030]\276p?t>\330\221\314=\262\216\205>\213A\263<s\355\247\276\253\212B=\325\214\036=\360\307t>\365\231\236\275\351\261\243\275\225\340z\275\344\232\265=\n\222U>\317\263\t=\235t\203\274b\201\266\275\003B\334:P\323\347>\203d8\276+\017\300<\373\250\304>\002\001M=a\262\337\275)]\207\275\260\034\204\276\037HC>\261\032q\276\315f\210<\315\tI>\t\265M\276)A\033>\267\262\001?9zP=CH\330\275\261\351\n\276\330T\026\275\315o&=\324\336\327=N\313\235\276\256`\203>\345|w<\274\352[\274\360)\234\276\014\362\343<O\227<>\222\2213>a}8=\241\254\211<r\361\353\275\304\252\341\275Y[|<m\310\014\276\025\343~\276\314w\237\275\321(\224\276G\351\267\275\267QP\275\027\037~>\364\206%>\020\201\320=\372\320-\276\030\2735=KV\266>m5\230>Z\265\256>\215\035\013>\214\266\334\275R\241Q=\200\324\347=\250\306\254\276q\242\213=\325\274\036=\354\357@\276%.Q=-\213\035>Wwx\276\216]\357=\255\322\225=\220fa\276\006c\n\276R\321\201\276\354 f>_\303\013=\002\201\370=\035\253\326\274\006`\265>C`\327=\357\231*\276\\\364\200\275\027\314\317\274\202\220\033\275}\244\r>0\3031>\256V!=w|\361=-\237!\275\355\337\245=\000\205\210\275A\204\245=Z\262.=\217:\036\275\311|?>\204\304\304\275\37619\276\320@\315=<g><\030\222|\276\266\025\245=\203\362\254\275\020\337j\275y\221\013>TWE=\240\272\325=\264N\201\276\264\326\013>\3078T\275\027\376c\274\230\377g\276\020\320\331=RS\331\275s\325F>\'\245\355\275\376\270=>\240y\240\275\026\240\025\275\206\210_\276.\357z\276x\320)\276M3i\276\\\337Q\276\205\002\'>\005\034\'>\td\313=\311p\235=x\360n>y\005e\273\235\240\336>=\'N=eF?;\033i\022\275a\221\210\275\210ON\275\000@\375=\253\225l=\256\210\222\276ocM\2760\202C>\220\325N\276dKm\275\320\350h\276\220\370\303>\006M(\275\312\267\017>\372\246Y>\270\205\r\276\244\355$\276h\026\275=\250\235\004\276\214DS\276\024\000\273=\262\364\363<\330\022\021>\310\306\240\276\376\226\312\275\223\224\214\275b\354\003=}\0229\276\3601\327\275\273\307\264\275P\363\302>\303H\360\276\033\002\251\274\353\265\333\275h\345#=\177]\346\275\213\307\375\275l\343\203\276%\232E\276P\311v>>\0028>\213\031\r\2762\005\226\275\317\305\365\274\364\372?>\0031\211>7\223\227=\337U\265>\233\245\257=\211\247U\276\232N^\276\014\241\002>\037\271a\275\330\'\234\274\024\373\260=[\035\234=K\341\247=t|h\275|AW>\23388=\210\n\234=\373\r\251=sx\215>\366\006g\275\331R\335\275>x;>\2205\321=\302?/>W\210+=~\316\362=\345a \275\"\222\200\276\316Bh\276\305\234\251\275\260\253?>@\360{\275\374<\350;\006\005\256\276\2553\337\276{\0056\274\374\224G>\231\321\262\274\t\223\001>\3446;\276^/;\276\2305\366\275M\315\313\275,v\377\275\2027,\276A\254\252=3\341\037\276\267\034\327:\205\205\017>\241\256\205\275\232\275\'<1Q\276\274I\316<\275d\260\276=\255\256\206=\274\231:>\244I\305\274pV\201>\253u\206=>\021E>\241[\305\274!4W=\315\303\021>\t \006\2748\373\200\276/\224K=j\306\350\275\300\320\305\275\357_\376\275#\255\332\275\216\372\270<D\362t\275*$\312\275\3335\374\273H\022\007>\306h\010\276\256\002\263>\301\326+>&\037\004\276^~\304\276|F\266\274\3443Z\276\316\215\022\275\301\322m>d\374\000>u\036\352=\2513$\276\024\376K>\222\006\311\274+4\001\275\361U1>\202\320=>,\035\274\275\223\nv>\324\335\367\274\232\210\204\275\277<3>\201\032\211\275\216\006\270>O\023\";\364\262\030=\274/\227\275\005\311\263\275Al\017<X\251\200<$\247\302=\266\234\347=~\260\355\275@\204\001\276\t]\227\276a\313C\275\263\213\363\274\364\324\006>2\372\266\276o^\307\275:c\034>\335\347\222>\023>~\275[\254\034<P\257\213\270\376&\325=\275j\222<\321\347p\274G\322{>j\327|\275\255:\036\276\214\236\207\274\345\232=\2756A\025\276\260\362\231=D\212\211\275\342\017\214\275j\214\002>bY\207=7\230\361=(\350\033>?\325\313=\351\2346\274R\332;\276\226-m\276\2635\372=|Z\017\276O\300\243\275j\236\213=\273\230,>\343\003\007\276n\202\326=\201\317\316=\275\2529\276v\024\331=d\257\332=/S\364\275A\221\035=\026\331\035>,\373h=4w\227\276\320\221#>5\t\205=\340F\255\274$7K=\325\271\264\276=\202)\274Q\324\016\276\353L!\274@B1\276@\322p7\n\323\202\275\270\237Z\276\266\312;>.<\307\274\306N\354\275\322K\300<\354\347N\275\340\330\274:4|\245\275~}\356=\304\277\217>\016:2>J\033.>\242\037\024>\372_.\2751O\020\276\222\026\307\274g\266\000\276\020\316\200=P\311\333=\004;c>\330\345b\276\237a3\276^\274\037\276\350\322\351=5t4\276\251j\350\274\212q\374\275g\004+>q\263\021\276\362\004P<\3062\004>\213\345\032\276\n9\022\276k\310Y\276\346\260&\274\332\260\210\275\275<\202>V\024\203\275=3\271\274\177\032*=\262\026\223>\314kA\276\023\374\377=\334`\207\275\027\264M>@\370\031>\367\"\321=DC\373=\267k\226=\347\214\344\274\263\267\223<\3354\215>E\027:\275\365H\274\272\300\202\204\275\022\031\207=\\\241\262=\013#\345\275J|\324\275\237\005\010<p\201\021\275,\230&\275\275\020U\276\230\002n\276\2558\257=\215\337\032=\351\372P\275\364\236F\276Ore\275<E\352\275\312\212\236\276=\375\261=3\355\374\275CH\032\276_\347L;\360\300L<\026\207\275=\001\233\221\276\354\362\022=\323OZ\276\265B\326\275\267v+\276\367\326\000<\364@\243<\000\267\235\275\241\347\030>sk\273\273\242\312\027\276\323\364\361>\341Y\034\275Kc\001>\032\347\001\276\375\211b\275\024r\000>]\320\030\275\212\370S\275\315 \335<\377w0>\223\347U\276\226\225\212\274v\271\322==i\214\276\177\211\027>\362\251 >\'\037Y\276\311:D>\t\316\177=\213iw=\244\271\255=\205\353\326\275\264\242\327;G\202\212>b\021\244\275;\260\370=\324\225\223\275\326w\275\275\351\024\261\272*Y\207\276\036\377\031>\224\001X=\001CQ\275\231\224\375=\022\"\016>\373\322j<\356O\024\276\\\223\203\276\365/@\275\243\343H>\276\366\002=\232\216o=\337\275\212\275 \2354;\026\325\225=ig\357<\211&L\276\010uK=\227\364\t>\216\211\027<\361I\257=3\350><b_9\276\240\203\216:,Vw=\365\375\246\2765\350@\276\031\313\217\275\222P\010=\006\3263\275\274>\327=\256\363\216=\003\346\007\276\235\206B>3\226A\274JWC>\216K\024>\013\005L=\005\366L\276A\326\275=\325]\231\275+\345\230\275\031\256B\276\307\306\203=\2649i>\200\250^\276\240\365\261<\037\256\024\276\217\2412=\322\003\271:\003fa\275\237f\242<j\0358\276i\255\224<\177U\026=+f\271\274\277\215\t\276#\3229>\232\212\t9C\362!>Dx\245\275\324W\257<R\276\223:\213z\235=&m}\276\026\264,\276\217\270\034=\223\312v\275]ba=\014C\354<\372\370\215\276\372e\212\276\310\216\305=[\t\202\275\241n\356<\261i\243\274\025W\026>\257\037\222>\260P\367:\302\315\003=\223\365\244<\265\001\204=}%\354=\226q\214=\332a\025\275\375\304\202\274\313\360\013=\262\276~\275L\373-\276.M\226<9H\232\275(g\362\275\026j?\276\234\223\005\274\205\013=;]\336\340=:\000t<_\337\260\275I\261\365<a\255n=\177\210\033<\364^\264\275\322\3756\275j@\200\274\222\277\222\274\367\231\312\274\352\031\352\273>l\253=\370Ri\275@\366/>m\337M>\307\257k\274!\206/\276\254y\264=A\337\006\276\300\332\324>\256=\200=\217\341\016\274\005^\363\275\224\337\332=]\'\217\275(\\\t\276\371\336\367<\247/\201\276\3117->\234@\201>\350\027\235\276.\313\256=\2636\315<\344\320\210>\335)\004>\004$\220\276r\234\214\276\001\031\377=\365\"\247\2752\014<=k\277\t>\202(\030>\346!\277>zy\350\275X\354:>\022\310<\276?jM\276\261l7>O\023D\275\222{{\276P\004|\275\223\021r>mu\031>\354\020\222\276W#s>\206r\222=\372z\2079\332\233\261>\366\337\322=\372v\303=\356\363\272\271\'K\204=\232\216\255\276\277\207\333=\227k\370\276\\\344\035\276\233\322\275\276\300\375x=o\220\212>\314\343\004>^\324\371\275XVp\276_\337\224\272\231v\303\273\206\324B\276\017yP=A\022\002\2763\361\202\276\252\264\264\275\0176\360\274\264j\363<\222\265\346=\373\276>\276(\267\243=\022\027\256>\201a\035\276X}\001\276*\223\240>\325\221\317=:R*\275\200\322\007\277J\204\331\275p\303Q\276_\254\216>\023T\307==?:\276\306\372\340>9\206Y\275\206\314\261<\t\253\225=h\222H>\255\007\243=\301\021\352<\317\316\230=\351\234^\276ho\333=R\355\020\275^z/>iFl>\225\027\241=\251\177\005>X\023g\276\217\250\006\276\177\373\006>\277\266\275\276\023\333\300=\336\241\323\276\272D,\276\024:!==\324\274\276&{Y>\253\017\241\275\034\022\031=\367\202\320=\rY\221>\240\365\322>\215\n\n>\025\267\221\275Q\261\253\276q\001\274\276\371\234\365\274\257\"\375\276\327\351\205>\217\265\001\276[L\010=U\315\204\275R\035T\276\335@3\2754UI>\327H\232\276\016\262\250\275\223\\(<j\215\257\273\034`^=\363\204\254\275\357\021\332\275\343\212\273<\263\0063<\213\221\364\275\344\304\302\276\177\271\000>C\361\320=\001m\001<Si\215\275pm\n\275 s\316=\223|f\275\310p\211=\264s\226\275\325/\006\276\362\006\004=MJ\305\275\343\r\263\276y\311 \276\023?\273\275\251\3732>,:(>~\024^\275\337uD>\027\352\316=\350\227\035>\262DA\276\205\360\277=QS\274:\220x\225\273{\311\002\276\363\355\240<E\200!\275\226\264>>\242|\373=u\262\213\276\325\030\260;\031\201\207>\017\r<\276\265Xk=\336\342X>\265\235\235>>\354\356\275\227\370\013\276\202\307\245>\031\331\315\275b\265\271=\327F\n>\320t\034\275;\264\020=\036\033\304\274\236\374\213=\207;\330=\003\355\007\276\004G\216:\"\326\034> >\244\276OD\031\275u \203\276 \365\031>F\245\271=m*\266<\203\306\344\275\262\000[>}\346\030=\3433m;3zS\275\375\025\344<\312\030\\\276\250\345\004>~c\251\275\315\233X=V\232\221\275t|\002=\375\216\215\275\010\024\n=\221!\203<\241Sh=\266M\006>\\]\212=Z\252\023>G\345\327\275s\236\003\275+\004>\275\223\027\003\275\304\340\232>m\375\330\2745\355l=\266O_=\234\022\332=,\343F>!\n\215>M^.>\367.1\275\324\321\361\275\206\240\207>\351\t\255=WS\204>\301\265P\2766\365\027\275#\271j\275\014\227~\276\307a\314=\024b\270=\375\034\\>\210=\001<\373\231\257=\225\273\363\275\364k\242\276\315\267\301\275\377\234\206\275s=\033> \262\t>\217\320w\276\001\025\241\276\000\017r=\2115V>\010a\227=\351\307D>\241\270J=\221\227\254=\227\322B\276\235\374T\276]N\021\276\353:^>\210\204\361\274\271\002\342\273d\321\257=\020\334/=we]>\230e\223\276\035\263\000=\255l%\276\205\316\">\251\014<\275\026Eh>\236\334B=\330\377\020>F\024\216\274\002\034\225\2758@\201<,MW\274\201rD>\345\000\002>\217aB\276:\255\326=\200\303\276=\t\215\227=#\344\231>\362\030\003>\256\020\036=\247x\234=\3473\276=\326\323)\276\254m\007>\337\273\016\276\235\233\034>l\272\251\275\036\021\227>R\262\322\275s\371\007=\374\344*>\250\322\216=\215\245\237>/\310R\276X@\261=\251\367I\276\311<\007>\013\366->i\312\307;\352\227\336\275\316l\017>\216\254\340>.\003\003\276\314\232\220=\315K\006\276\324u\257\272\2506\241\276\276\3546>\266;H>\\\355\246>\030J:\276\343A\272\275\337\205\234\276?C>\276\022x\203=fe\016>\244>\343\275\341\314\220=\227\377!=I>\313<\224\255\250=\026\034\276=\322n\353=\305RS=4H\232>\n\017S>q \312=\233\036|>\220\323~\276#\210\207\274\277\277\026=\277\333\331=\263\247\024=\357\224\333\275f\022\007\276\335$\347\275\002C\010=\2712\004\275w.\245=\003\007\202<\022k6>\321p\001>Bl\314=\234\226\206\275\215*7\276\3611\006\275\271eC<C\240\221>\371]1>n`c=\320\340(=\354\343\007\276#b1\272\346S\312\274\277K\020\276Fw\231<U\260u>\004\230p\274\375\212!>\005\340\r>@\032\341=8\305\233\275\247\021I\276\032\211)>)\326\355<Uo{<\344\3276>0\243\213>@\017\236\272\206\270Y>\353S\306\275\330\030$\276\334\273\222\275\364E\251>\334K/\276\253$`=g\322)\276\332\247H>F\321\216\275e\232@\276\nv\002\275\274&\341\275\237\247\035\275\004V\010>~8a\275B\342\330==\316t>\237F\023>P\225_\274\272Qd=Wr\375\274\273]Y>(\202]\274\253\022c\276P\013\031>\320\322\342=\'M\317\275\001Fi\275w\312\321=\336\217r\274\333p\010>\334\325T>Di\240\275\'$\317=\230v\373=\332;,=M_I\276e\023\215><j\035<\345(\233<@\2275\276\215\017\376=\311\315J>\362\366:=\236t\231\275tuf\275\203\3674\276\310\020z=\226\3357\274\002\203:\276\037\356<\275;~+\276bq\206=f+u=\035\234\345\273T\272\">\333y\272\275o\302\204=\216\023\232>i+\020\276\221 />\313\032%<\312\377/=\220\243\326=\2556\244<G.\002>\256o\215<\316\3308>\242\017\341\275\250(\357=\210\207\315;X=\207\275W\331\361;\347\226\235\2741L,;\22623\275z}:\275\364\313R=MH\260\275\n\310\306\272\314\222?>\306\027\301\275\343\214 \275\321\225)=\270\216l\276\314\245T\275w\321\243\275U\010^=VT\276\276\372\263S\276)WN\276mZ\270\275k\372p;\352W\014\276\320-T\276\316\204Y\275C>\030\276\032\005\353<\322\245\236>}\005\224\275\255m\037>\217\211\314=\323\313\r=\246\265$\275\234\035\300=CSs\276F4G=\347\352\305=G\020*>\001\2009\275K\222Z\275\242,\247\2752\335\"\276Z5t>6\230\270\275\026\364\211\274\253\205\214>\207\\\003>\310:u\275\241c\346=g\344\264\275\003=\035\276{l1\276x\270i=\265nG\275T\264==Ghh=\000\341\030>\230\320J\276\326\310|\276\324n\247\276\323\004\213=\301\237\007\275\241\255\231=\207%e>8\217-\275*?\331=\356\216?>\337\020p\273R\002\222=L\027\241<\334\247Y>\375\364\200\275\331m \276\"\203>>P\t\304=\013B\223=J\326\036\275\246%>>N\300y<\"\355\366<\342@\215>\214eg>?\304>=\016\032{\274$x\006=\315\230\037\276\315\0067=\201)\222=\243\007s>\363th\276\016u:>\312\226I\275M\374\"=\206\000\033\276\300\203\023\276\303\225\276\275\030(\262;+\017)\275\363\245>=\213\255\324\275\225\305\036\276\335\0070>\nU\022\274\037\225\245\275\311`\n=N\242\000\276\241\0140\276\344\265O>\346\303\t\276&B`>v\312B>g\003\254>[\335\353=ycr\275+_\245=B\373[\275\021\231Z>\306\030`\275\247\322\265=\201\253\202>FD\013\271.\263,>\026\332r:c\345\217\276\177H-\276A]\r\276\2658U>`\370\227=(\\\226=\246\220\203\275\010\0270\274\302\232\326=\220\335\352\2745\256\010\276\217V4\276\313?3=\034Z\324=\275\266\341\276HLC=\221k\364\275\230\010_=h\nF>\261\326\013\275n\206\006\2763\201\016\275\204\223\312<\363I,\276\371\362\010>y\336\005=a\313\214=\360\256S=\t\177$\274\346d\206\2764j\r\276\203\327S\276\037 \177\275\250L\373\275\004s\024>\270\244\205\274\023\r\332\275\273p\372=s\031\006\276\241\266\247\276-%*>\236G\231\275\277\333q\275\337\337\304\274\025?\213\276\362\365h=/_\202<\321\362+>7%\031>q\000\235\275\252R\333=\326\236Z\274\013\363w=\342\331x\276x\273\225=\300,\225\275\010\227\214=L\233\233\274\177\356|\274l\312\016\276G\226\325=\t\257\312=\322\027\300\274\255\260\030\276/\216\374\274\002q\242\274%3\035\275$\\.<2\217\312=\353\233\322\275\303L\307=\226\260\370\272\312\023#>\252\203\304=!%\273<\240\r\221=\341e6\276s\242\334\275HT\223=\030v\206<\253\372\270\276#X\004\276\303\266o=\253yx>\017(B=\206\237O\273\"#\333=\'i\202\276\323\000\224>\310\020%>\364\353\214>\232\207\273\275({\230=\264\345!\273tI\264=\232\267b=2\004\331\275\201U\260>\"\271\007>\351\233\340<N\266\244\275\353\000x;\325\017\332\276\030\036e\274)3\252\273\002:\242>\372z\032\276\247\224\027\276I^\016\276!n$>sK\223>\360\303U>\003h\320\275I\376\017\276\343\300\036<\316\2239>@\355\221\275\322AT\276\252\204\223\275\266\222\\=D\247\275=\267\310X<2\250n>x7G=y\251\367\274\2067*=#\252\330\275\375\256\372\2755\373\307\274\311\342\222\276W\266\200\275\360\216(>\024\216\204>NP\236=9\245\007>]\375\016>:\340\021>\222\002\000\276\324\303\342=i\227\214\275\000\246[\275\341\310:\276\227b\274\275\200=(>U\255\256=\020y\325\275\213+\343=;B\r\276L\315\224\275)|\302\275^_\370\275\t\217\031\275\214\260/\276\222\000\007\276\233\260|\276\265\371\330\275\211\347\321><\203\t\276)\312!\276\017z\252\276\347\340T>z\363%\276\300J|>K\323\306<\3573C>\240I\013=\237G\223\276\232Gu\275z\203\035<\346[\014>RWL\276w\324\216=\020I\246\276\251}`>J24\275\243^6>\263<D>\360uP\276\250&#\276\323E\264=U\002\302\276@\227\240\275\302\353d<{\355=>\'E|\275\201\207\n>E\362\333\274\266\263\002\276z\226H\2750\200m=\034\331\376=H\250(=#y5\276,\231\207>\247~\360\276\250Tb=\240)@>\003\335\r\275\365~A\275\276|t\276K\243\217>\255W\207\273E\261\241=\315\2760<\216\267\261=\265\250\363=4\257(=\334\242\027\275( \215>\360*\311\276[\3453\275\343\377\024?\003\362\217>\3434/>F\302\037>WP<\276\372\236D>\242\313\252>\323 \262\274$T\206=\334\203z\276\343\225S>g\0035>Dj\237=\273\245\244\2762\\\231\276\016oH>\3173<\276MJ\246\276zY\223\276\257?\227>|V\305<\204\230\311=5\305\303\276v\301\345\274\004\246\017\276\340\225\313\276\310\246q>\014e\226=\304)\304\275\347\034>>\002n\037=!s\017\274\204\355H\276?;S\276\006H*\276\247\245\367\275s\233I\276\266)\244=\312\311\301=q\212\t\277\t\034\304={LN\275\271S\343\276U\273\227>gZ\331\275\311\027\024\276\354|\273\275\261}\244\275co\215>\215#\256\275KAw\273\\\366z\275\024h\231;u\235,>\010\301L\272>\247\032>\035\206\234=\301(\211>.\'\003>\225(\'=5\264\205>\312q\277\275\321\311G>F\236\240\275\027\354\350\275\001RG\276\t\335\030\276\341\322\037>N\254N\276U\223\r>[+\361<L\205\200=\032\t2\275~\345+\275\271\032\205<)\350\221>\210\002\017>\003\270d\276\362\275<\276\277v\177\275\371\022\201<\223\345\016\276\302d-\276W\030\211\275i\253\220>T\353\r=\273zH>LWD=\302k\270<\242\276\246\275\031\266\226>Wj\014\276\377v\201=i\222\n\276\247\206\031\275|\255g>\334iu\275d\277\035>G\231\007>\21407>\364\205\366\275Z\330^>\310%\020>.\327\212\274z\020\364\275\002\375\200\275\004\201\003>\326h\t\275\032\225t\275\033\275\027\2771o\334=k\340\210>\265\242\260\276\177_\240>\262\"\373>\000\000\215>\2573\352<\210w\177\275\340~\352=_9\227<q\235\252>\245\355\006=}\024\330=.\214\263>3\227r=\000\241\264\272\240l\270>\326\317\335>yA\221\275T\3577>\001\354\361\275\377l\267\275\322K\375=\025\204@\274M\t6<g\237\027>\350\277\345=!\214l=$ \232>\0079\002>\301t\023\273\2079\026\2763\014\247\276=-K\275\266\342\">f\376-\275\370d\201\276{?=\275\200}\356\273\272L\036\276\263\217%\274\326\247\"\274\230\350\371>\365\262b\276\203H\276\274\261\340\236\274\305:\r>\2761\262\275fp\300\274\037\034>>W\263\305=\353\016\225>\366\245\026=1\212\312\275\204|\231>\224o\355\274W,b>+\3125\276N\\j=\272\'\020\276{=\255\275\314\277\226\275\316U{\276\214T\222\272\327T\310\276<$\207\275\254\344\013>\365\000-=n$\215\275?\313\025\276OE\313<h\264w\276*p\016\276\324\273z>\024\0253\275\222{\267=\213\245\244\275\2572^\276>\375\037>\265\356\200=2sa=%s\242>\205L\347\275*=\323=R(\237>U~m=\324\035!>a\374\027>\311\377H>$\177\372\275X\225\026\275|\0072\275\275\255\340=\236\227=\276\365\312\376=PQr\276\223#,\2752\233{= \001\332=]L\302<\212\264\370<\301n\213=R\307\201<\007\021\037>\216\265\227<9\310I=\233\356*>X\014m\276U\032O\275T\311\342=F\307\024\2767s(\275\304\204\033\275\330\356&>(\353u\273>\367\274\275\027\343\255>/\200\207<\377\330\371<\003\002g\276\032\316\330;z\372\260\274\300\3247>\251\213\223>\244\tP>Q\336S\276\312\005c>\320\254\356<\273\334\033\275\311\336\273\275\376\312f>\362\266\016\276\252\352\020>\341\020\020>\026N\213\276\351\227\000\276\247[/>}7\n>U\263\n=\252\225\342\275\205EU>\363\036=\276=Gw>\001\242P\275\245\234\244\275\2516S\274\334%\"\275\2540\371\275g@\267<4\262\177>\252\"\212>\245?s\276U-K=\tE\214\276\237\305\267=)S\222\275\215~|\274\303\251\344<\235\245\002\276V\312\226\276\227\003\207\276|\307\343\274\376\2019>5\240\250\275\322\362\272\275\254\024v<}rT\276\306N\265=\360z%\276>\275\342\276\251\037\336<\242\0251=\322\246\312=\227P\021\276\240\2500\276l\234\270\273\232\001\322\274\376U\243<\341\254|\274OZ\003;\307v\031\275\306\273)\276@\021\251\275\241\377!>\231\276\263\275^#\030>\352\244\310=\010Y\374=\352Q\037\276\326\370\t\276R\364\233<\010\246\321\275Y[\'>\177\352\222<\t\000\200\276\340\324\034\276P&\224>[\024 >\215]\277>\035=\302=\024s;>\275\261u>\223\236T\276\306\275\217\276]\232\333=Zq\340\275\242S!\275D\223\021>\313\031\226>,n\250\274\006\341\265=\323\323\206=\352\025\362\275\031\234\342\276})\322\276b<\'\276\335\366\212\276\342\201\237\276\343z\222\276$\226\n\276\317\207\005>\323[\242=B7\346\275\272\037\030\276\236\214\236\276\275\253\230>\214OW=\242Z\t\276\007\t6=\3432\013\276ho\217\274ll%>@\215?\276\316\327\230\275R0.=\021\240{<\334M<=\004\372\217>yz+\276\375g1>\322x\251\275\304<Z\276\334!#=\365\255_\276\214`\037\276d\225\306\276\361\217\252=dBE\274\301\346\013>\026q\222>J\257\323\2760\211\214<\3722:\274\235\016\240\275\356%s\275P(\014\275\276\201\214\276\030I\007=\024\276\200\275\364\014A\276K\200:\276\347Z4=\036j\017>\326\230]>r\214\023\276\035\250\326=\231\333\377\275\246\240\202>)\327`\275\000\361r\276\032\275\265\274\201\0234>\323J7\275\331\330\020\276\001\327\305\276\346Y\032=\263i\007\276\330.;\276]\377o>(\277\\\276\224\t\354\275\257\255:\275F\006\232:\007VD\275]\363P>\276\341\265\276\241[\001\276A\306\024>\244\2262\275&\207\216>\237\330\021=\271\337/\276$\227O>.\333@\276\235Ph>*\273Q\275\210_U=\254\351\261=\306\362\023\276\237b\334\276\370$8=\225\250Y\275\272\310F>\201\330:>\026\253>\276\322\3671>\345\213\326= X\337\276\nS\031\276\"\374)\276\226\225B\276\244U\022\275*I!<\221\232z\275\373y\020\275\3600\211=C%\316>\231\273\014\275R\203\206\276H\2313\276\352\342\200\275\177\365\253\276\177Xi=\231\315.=\304pU\276S\353\r>\307Y\230\274\022\350\307;\207v?\276od\255\273-t5=1\271\210\275\3049\340\275\221\372\221>\314v\330\275\220\351\032\275QS\205=\307\224\323>\335\241\264:q\026\222<V\331\016>C\324\027\276\273\224\207\275\334@\023\274\357\231\332\275I\333\215=\001\304\236=\344\353\004\274\006\376\230\276\030\224|\274&\032\324<\014\343\270=\251\225\374:4>\207>\260\213\202>\365\234\231\276\203P\320=F\034\321\276\243\005\225>\217\354m\275S\305\253\275\373\311\302=\232\251\207>A\224\214<\025\341\026\276\023F\264=\327Qk=K[\330=V8K<\033%->\337\374\237\276Z7c>R\220\265\275o\300\032\2761z\242>)\031\"\275\302@l>#\213\031\274\272k\363\274y\245\016\275\220\220\313\274]/\222\276\376\374\372:\322\023\t\277\340T\371>|H\035\277\340`\234\276\213|\300\276OA\320<|Y\017\274\177\036\026\276\'\206f\276\260\r\226\274\233\010\244=\241\303\022>\267\312\210=S\n;\276\"-\t\276\324\246G>\3438\300=\201Wx=\013\213#>\374\324\313\273{K+\2767\263Z\276\2107\"\276\325X\242=\262\325\016\274sSd\276\351c\326=}C\262=W7\273\275\354\375\221>\260\003b\275\022\216\230=\035\207\317\2756\312\001>L<\014=\372\367\220>\246s\310=#\374z=!\332k\275T\322\221>i\306,\276\331\037\214=\263r0\275\257U\351\275\000\026\037\276\006F\224\275\224\335\237\275t\312A>\370\t\335\274\002\2414>g\351\257\276t\032\031\274\366\210\327=\350;\320\2760\\H\276t{\216>\226\217\357\275\255r\254;l$\201>\230\347\307>\243\331\n=d\260\234>\276\330j\275\373T\001=rG]\276\333\r\247>\022\200\304=\3422\003\275~\302\325\274t\230\323<\315\300\276\276MQ\032\2761\207\301<\004\006\216\276\232eu\276,\315\366=:\223\257<\313\366\022\276/{\237=\260\023=>\311{q\276\323#U\276\267\331U>pk\000\276\333\360|\276\013E\200\276\014+!>\261j\013>L\337\214>5\240\333=|\237\233\276\345\250\354\275k\032o\274k\355\241=^\001\204>\017\274\305\275\\+\375>\270\037u>}\366\257\275u\360\245\275\316\010\207=\330\265>\274\315\207H\276\200}\026\276\006b$>\206\305D\276\0033\202\276\276\235\361>\331\013\315\2752RL\276w}\303=8\005\261\2761\340\014\273\034\211*\276\217J\032=\250e\366<\275XA\275\0060\370\274\nt\352=\376^\004\275\314\244x\275)\014\276\276\234\361\300>\362\350\021\275\255\370|>yB]\276BH\026\276U\n\024\275\264\302\235=\001\215\033\276\367B\242=\245\234.\2764\202<\276:r\t<?V\203>\234vY>j\301\252>n%,=VT\356=Ln\370=\327\004t=\003m\216=;\254=\276\023\260\016\276\215\246\230=w\274>>^n\257\276&\027z\275(\360\201=\234\351e\276\273n\236\276\331$\205\276[_\216\276\265\014\251;\2121\333<\301\215\337\275\206\304{\276\337\033\371\275y[\027\276\010\270\302\276\273\352S>\017\315\272\273\345\t~=\022\001Z>L\313f=R\221\362<?\332\020?\355\370\337\275R<\232\276FD\216\274\317]\036=S_N\276-\376\237\275\323\346\216=\362\260>>X\350\300>\300\336[\276]N@>\241\360\225=\266l\010\276\352\235\367=\022\316\204=\217\375\312>+\033\227=\330Q\220>\312\363A\276\277\037\321>I\360I>a\217\023\275^n\344\275?+\202\275\312}\010\2767A\373\275LF\004\277:\033\230=\337~~\275\020\022Y\276!\255=\276\345}n\276\020\3357\275#O/\276\005\277\315\276\342\203\215=K\250\024>\026w\205\275V z<\371\212\231\274\373\005\245\276f$\237>p\357j\276x\017\340=C\0200\275\3230q\276\371\245\362>\243\030\316\275V\200\003>\014\021\302\275E\350\227=\3404\200\2762\206\274\276\272\344\213>\312\326\213\276\035\336\226\276\204dE>U!.\276a\2165\276<\247\353\274\324\223G\276(J\215\276i\250Q>\3531t\276[\020\337\2744\357\257\276\274\'\014\276\023\352\256\276\263\333\033>\005|\253\273\226\224&\274P\343\250<\366\354\010=\020\313>\275hr\277\275\252*\320\275=\325\224>\306\251\363\274yin=*M$\275\341\232^=\021u\364=\3040\223>(\223\266>\343\013\225<\374I,>\"\232o=j.\336=\027\002\351\275\316\215}\275q\2635>\267\336Z\275\277\233;\275Cv%>\201\202\344<Z\333\320>\357\227\026>rS\026>I\036\314=y.\244>\345&\356\275\301s>\275n\367/>\345z/\277H\203A\276o\243]\276\177e\357=\377\363\272<\247n\227\275\207o\270=\333\007\330>K\016W\276e\023\326\274~;\020>\315\264\031>\227y)\277\016\200\006=yN\325\275\200\"\222=kL\006?\373\222\304>X\303\026>\263\205\031\274!W\305=\321\006\351\273\216:\230<Xv\327=V\024\'>\267v\226\276H\376\346\274\020\334^;\372\217b\276s\332\024\275\351\247F\276\002\340\327=\035C\253>\303\265\323=\2101\321\275m@\013\2751\326\201>\320\010\252<9\224\220=\253uX\276\2328\207=\255)\231\276P\226\361<To$\276 D%>\371o\350\275K\354\202=Q\247\343\274\031\272\260:>+\244;*e\200\275k=\252\2762QE=\234\253\314=nj\225\275\036\352\355=\210\020\214\275\002\006\037\276\277\024\006>\017\305{=\3638L>\306\373&>\272\014\004\276\347\346A=\201\271\211\275R?\336\274A\240\330\276\377\002\306\274\305\320\247\275\307\334G=\262V3>\250F\030\275-*\016<\261\"\245=~\205\t\276g\250\252=\347\251\330>F\377\347\275N\307\001\276\204z\222>\225\311d\276\225\357\231>\334a\007\276\034\204\272>hvT\276\303\254W\274T\230\222\275O\036l\276\273\267\250\276\363\253\307=\342\303\207\275\201\014\350<,\206\203\276\206\346<\276\334@\336\275l\016\022=Q\336\207\275DB\227\275f2\354\275e\235\033>A\271\232>\302\363\033>\303\2623=\223b\003\276\361t\035>M\337\354=\2432\230\275lA\337=\003\354\326=|A\307;\373\177\207\276X\326\215=\"\020W>\356\310?\276.\262\244=J\013S\276\265\020O=\355E6\276\000\364\365:\032xE>\016\2125\276\013pa>\010\376+=\351\372\014\276\027\225\025>d\275\010>t\303\235\276\337\007\310>V\263\206\275b\303k>\006UK\276\202\210\251;d\210\n\276_8\341\275!\317\235\275\326l\317\275\234{R\276\236\262\004>\255VF>&\217q<\261&\301\275\306\303\265\275NW\246<\342\245\235\275|\247\250>TB\302\275B1\216=\262in\275M\010\243=\300\017f><!+\274e\321\215\275\243[\301<VL\347=\366,\020\275\341h\001\276\314Z\266\275do\205\275\210qG<\305\225\017\276c+.>\275X \274\326X\212>\252>\247;\"\300\007\276u\374.\276\267\'\274\275a\277G\276\014z\220\274\343\222s>\3669\232\2756t\034=3o\017>\341!\351\276 g\275=\016\346\307>\347\265\247=}B\034\276\205(\030\276I\025H>\323\003\021\276\260\033\352<\376\001M=\244\034D\276\372A\200=[g\345\276\277\303\025>G\317\226\275\255G\034=\314\252\213\276\tK\335=\230b\360<\227\234h>B\272\272\275(\367\032<x\341\322\275\245\220\317>bSu\274\246\253M\275S\203\004>\367\357T<\320k\325\274\3538\205>\373\337w>\225|\315<\265\035>\275\254\016\311=\266}\353<\336U\241>s\320\005\273Rf\321\273\254\3167>\013\004\\\276\237\305\332<\350\204\3007\036p\256\275\353\361V=Jnu=?\003\224\275v\267d\275\027\232\014\276u\2022\275J\254\206\276\255\010\274=v\250E\275A\033\353=\263\3309\276e\3640\274\3105$=\311\007\377\276\373\200p=+\225\252\275n\321;\275\220b8\276U\374-\276H!\030>9\357$<\334)+\276\30241=\020\2578\275\232\236\276>\250 @=\250\257;>\032e\242;\327v\350\275hVX\275\221\205\214<0\205\216>H\'\n>y\357@\275A\351\373;\220%\242\275*pd\276\016\326\231\274\t\247\261\275\305 \002>\243\000\321=\214B|>\227:(\275\002Ym\275\315\367\035>\217f\022\276q\342#>\230\374\347\274\316h6\276\332l\005\276\260\"\241=\261\266E<<\224\314\275UiK>\314\031\351=lv\257\276\"6\340\274#\347\306\276\220K\205=\001\343B>\320\250#\276\nr\365\275\267\265\322\275\260\211;>#T\013\275ZR\021\276\257m\200>\035q\037\276Lt\003\276U@\256>\016\323\211\274\327E.\276 l\310=m8\216\275\002T%\274\360\037\364\275sE\272\275I\212\234=\333\310\233=\306\330O<\311SH>\364\273\213=\034\244\332=@\344\241<-)\016\276@\201\010\276\302\261/\275\351\306\226\274\353Y\217\274\241\363\010>{\307\007>\317q\305==p\317\275\321\361\370\275r\252\330\274\224\312\204\276.\036\253\276rjr:\311\r\027>\366\305\245=)\016G\276\327/c>\364&\215>!\322K\276(\247\365=\306\246 =\323\346\340\274\204\231\243\275\'}\212\276Pz.\275\266\246\233\275-0|=Y\255\227=4|\235=}\366\237\275\354\204\222<\365\3552>G\037\003\276\244Bz;Q\003,\275\220\232\213\276\246*$\275\344\341\261<\334\3113\276(cN=\231y\312=\253\014\277\275\260\276\215<4\316y\274\274+O>\271\240\227>\014\037\003=\316o\321><\245\351<\345\356!\276]\200\342\274E\237G\276(l\235\274=\246\327\275\263\210{>Q\245\032\276\363q\240\274\205VG\276\200i\306=M[\022>\371\231\332;\211\201{\276\205\366\355=\207\336\307<\320@g=I\3165>\263\271|\276Y|!\276\233\373I=\034\\\234>\374\252\r>\330\244\273<\311\020\235<4H=>\341\204\232=y\351\233\274\250X\017\276s\n\216\276\000\234>\276$\006\357\275\332=\272>p\300\263\275\275\266\322\275\271\273;9l\373\234>c\026\002\276VU\355=Kh\035\276^B\270\275(\007u>A\033\266\275\306,\027\275zxh\276\240\215\322=\362\200h>W\217`\276\325\357K>\t\263\027\276i\255\005>\236\367\257\274n\252\373>\354j\240\275\327\002\200>\201\211\021>\257\305\032>\322\260&\274S\177>=rJ\036>\244\350\322\276\025*\307=\215C\202>N\320\244\276\006$\224=\250L\236=\202w\352\275Y\221\262\2765m<>\356\274\035>\227os= \254\251>\241\022 \275\311\250\020=R\274#\2752\276)=)\304\352<\253?s\275\247\'\264<\276&\026\275\232\026x=0\354\215\276\313\007I>\r<\031\275\370P\261>\001\331\307=\032\300\202=\205|\241\276\240\237\037>;\341\236=\t\032\n\276\014\226r\275 \205;>\217\007\203\276Y\242>\276=\203\321=\231\233\263=\354&\342\275\300\271\300=\346\371\353\275\004\252\315\274\210\335.<\200\333\310\275$\247u>\243O\341\275\232\270F>\031`S\276\237M\211\276\332\237\221=\256e\351\275\224\200\314<\222D\017=N\325\222\276\242\266\243>\267~\034<\324*\214>\307\200Y\276\233\037\203>\333\3014<\351\231\276\276\304\274\206=R\322\374\275\311\314\305\273\254\351\265\275{b\266>\232#\253>\023\240\034>\275\001C>M\337\276\275\001\365a\276\221\237y=\374kH\276Bh\006\276#\205\251\276M\3758>c\235\234;M<\332=yz\037\275\3217\037\276q\276j=\013\177,\276u\377\313=\230K\022\275F\022\336>\314\367\220\275\374[ \276\276\350\271\275Y\265 \276p\207G\276\220%\251=\016\200\201=!\317a<\344^\202=\231\017\030\276,B6\276\202\3268>\030\330\206>\360\247\214\276\350JN>!\027\226=x\361\231=C=;>\346\234\211\275\347\310\241=\004\225\307=i+\010\276\235\314n\275\277\275N=#\374\241=\306\213\275\275\037\212\264=\2456+=\001\037\222\275\022y\363\275\000\005l\276\224\032G\275k/\210\275S\363\306\275\377\220\215\276K\211\'\276m\245\017>q\237\305=:\033\211<\263\230;>\"#\361\275\332zo\275\331\024\356\271\320F6\275Y[\222\275\034l\035\276\230p\001\276K\221\255\274up\243\276\301\214\340<z\\\376\274H\250}>\2554\223\275\024m\001=\321\331\323=\341\256I<\224\255\344\276\021\234\260>\277\016\245=+\024\022\276\000\225D>\036r\324\276*kX\276)m\275\2754|\225\275^+\212\276q\033\243=\235\023a=F:\204=\033\010c\275\213\373a<\033\007\"\276K\0261<\321t\326=\322\326S\275;E@=\377+\353\275&\324\231\272\307\236\244\276 \231\366=\274c}>\3604F>\013\020\361\275<3\201\274\325\020\307\272\221\225\014>\207\002\226>\326\312\255=\016Kr\275\316\322\024\275Jy(>&\311U>\244\265^\276<\311\275\275\024\365\254\275%\006\361\276L\326<\276(\336\341=\217yJ\275RP\247>\371\374\203>PR\263=\356\225\247=Y\330\231>\311\314\024\276\n\\\\>\n\376\262<\r\\\230\276\3739\221\276\310\346\321\275\210\366n>r\216N\274\230 \202\276-\306\212>\021\215\005?\005=\231=,\370\203\276\326\022\212\275\321+\274<\255R\275\276Z{\232=\363Q\006\276\237,S>\203\371\252>\316x\334>\371k\235=V#\t>\332\276\021;\375I\257\276w#\323\274\230\002L>\255W\272\274C\266\024=Vj\034\276IxT<\301o\340=\001>\226>iP\233\275f\305\306>\352\020\t\274+\000\274\275~\'\276=\327\001\025>\373\330\202=Mx\310\275\r\372\211\272\323\357\204>\027]\001>#\334Y\276\033@/\276\234\035\265\276[\023G>\337$\n\274\240\315\252=)-A\276\261R\223<\251\r\225>e\3477\276\222\326\016=p\264k>\371\026Q>wj\207=\t\375\372\275\021m\217\275\336\371\022>\244\300\313<I\013\225=\256W\205<\252\017\334\2759`\036\276k{\244>\022\335\005=\033\"\241>\320t\013>\340sD>8\235\307\275Bt\263=\021\233\276=\345\030;=\267\027\256\276\207\243\023\276\017E\301>Syv\276\031)?\275\313\212\356\274\367[?=i$\371<\2742\002=\223\230\330\275\343\206\221=\235b\224<U\243 =\177N\013\275h\242\275\274%\251F>E\363W\274\333\\\362=\234\235\234>O\364\177=,\361\364\275\311\275R=\025U\352\275\367\253q;\250\2102\2769H\310\274*\037\275\275I\235V>P\021\360:[\034M\275\005\'\202>\221\263\351\275\364U\262\275\310\344\216>\376\371\304=\257\315\007>\307\303\004>/WG>\232\245e\276\236\305\002>\026\357\266\275\226\260\004>\353b\246\274\007\000\010\275%\330\004\2769i\256\273\241\301\231=<-\256\275\346\256\232\275</\306\275\275T\335\275$\336\t\276\207\000J=\361\024\264\275\001\350\222=@\214\321\275\034{\226\274\210\257R>\342\335g> \204\016>\204\201f\276\221P\014=\353\3732><\240~;S\036~>\254d\326\275\014\231\266\272\000\265S\276\377\336\014\275dA/>\350\363%\275\3215\204>\342\263\373\276\3150!>I7$\274*\034\227=2\227\366=~\354\305\274\341\341\315=\n3\250\275?\n9\276~\336p\276\2318\312\275\371\266\'>\234\250[\275\013\305\204=\306=\371\271\006\354&>\236\'N\274\r\350\225\275Wo\271\276 \t\246\273\305\242G>\2710\006>\021\350l>\357\255\003>\n:\025>\344\305\342\275\037\033\202>BC\252=\320n\372\275#\245\016>s\352U\276\240\274\243\276-\257\007>\311p\017>\002KA>\331\"\321\2749\254\317>\377\307\325=z\025Z=\232\366\372=\346F\374\275\"R\214>I\307)\276B\361\313=\264\026\004\275\020\345\211>\221\035\354\275n\231\277=\235ph\276@\324S\275|\370\327=&/\312\274-3>\276\013\016\'\275\250\227\220>\254\326\252\275s/2\276\371\247[=\306\346r\275\354A\235=\000\211\307=\266iI=d\322J\276\253\266\366=\321\257b\276\347}l<y e<6\021\200<\3769\315<\337P0\276^\243y\275j\364\271=\207~\352=VT`>y\230\216\276\361\335g\275\320\'\232\275\025\201\264\274zz\204>\333\203-\276pF\254;\025*\266\275BS\270>)<\227=Y\300\373=dRA>\034{\266\276\330`\305\275\275\202\251\276#\007,=\010\316p<\257\266B\276\356\300\314\276\204<a\275\036hR\275a\353Z=%y\333=\334g\266\275kyV\276\264\'o\275\002\346\001;7\337\205=6\250P\275\0227\r\277\236\372q\276\016\266l>\232sT>\"\225\326<T\206G>\302\272\350<N\326Q\276\225u\245\276\322\274\306\276\355\'\370\276\233s\200<iu\242=4\031:\276Y\273}=\217=\206\276\246\257\214=|\327\031\276\266QJ>\357!(\276\343\351\r\276\204-\276<N\363.\276&\320\215\275i~\361\273\\\016\033\276)\246o\276\032C\202\275\254\036`\276\355\014\302=\273\220\221\274\331\230\247=\214\360:=\211\303\230\276\356\005\354<1T\201\276\334\005\274\274\325\264\007>\225!\205>M\2643>Q*\337=\244\327\313=\261\375\007\276\345k\337=\216\226\227>\314;1<\200\3712>\361\233->\356\356\201\276\225rR\276>\364\032>\363\213\010>\310\221B\276\336\233\221>\2441\371\274\271\255^<7\366\351=\337:\217>\200\177}>\024/,\276\372 \202>\301\254\252;\002\017g>Oz\235\276]\003\032\275\330\214\371\2754\336\333\2750@\315=\356\220\223=\265kK\276M\374\264\275\245\263\312=\263\001\211\276\357\3771=\256`\357\2750\2462\276edY\276Z/\244=\274$W=r\250\274=\204\216\224\275\022\255\207\276X\326\'\274\277\010 \275\221o\220\274\003n\003\275#G3\276-p=>\004 |=\024\374\177\276\0102\225\275\317\021\301=\3063\250\275\317\332\241\275\301H\346\275\364qG>p?V\2756L\347=\275\317\201\276\n\016\313=\021\226\246\274\244\375\317\275n6\006?k\215\021\276\333q\032\275\233\252\276\275&pK>\257\201\226>\350}P\276\320\'\264\272P\313\340\275($S\2769\304\233\275>\241\241\274\371)\233\275\"\246A\276\317\n\201\275\n\335\t\276\227\352\376=\340\214N\276\007\235N\276\225\037\206<F\211 \273Z\256\327\274\302-\226\275\374\006\252=\322\356\010>Q\360\t\276\033\346_\276t\033\003\276\300i\242\276D\344|>D\2072\276\007)#=@\366\214=U\324L=m]\262>l\312e=\024e&=H\334\210\275\030Q\365\275C*\365\274\336J\374=2\217O=\351\242\220\276\323I\'>j\"\302>\206\245t>\357\365\205=\362\247r=\276\262\t=\303\373\236=\201F\356\274\205\201\233>\323\001.\276\343\303L\276\034\275\323<\226\235\014>f\315C\276E\300\241\275\306\245\232\276\342\311S\276\233\346\234>W0\301>c\027\203\276\36451\276\007x!\275@\256u\276K\234\371\275\024q~\275\320\377\255=\254\004\267\275\371\274\206\276\3155\272=\337\016c>\241\270\025:\343\226E\275\017\177\272\275\314\270\327=\300\277\222\275\016\270E\275\3548\355\275=\204\211\274\003\273\244=\267\363M\275\214\241\253\276^\345\230\2756\365\213=\234\311}\275\340C\207>F\330\r\277\344t(\276\ti\221>#\301\323\275l@k>\2428\007>z\240\355=\3333\236=\\\333\n\276X\326\207\275\225KR>\220\376\035\276C\317\202\275\352\003\303<\352\377\271>\241k \277Q\217P>\366\365\310\275.\374d=\215\033L>\373\362\030=+\nL\276\245\350\222\275}\275\004>\245\316\204\274e\357(<\240\360\246\274zs\304\275\307\312\373\275\273E\204\276\267\021\250<\321\326\347\275\360\352\312\276\001+\222\274\320A\321\274\343\220\313\275\002H<\276\002\260[\275\315\206\307\276\313_k\276W\351\300\274:!l>H\331\341=\222|\364\273~\252\177\276J\216\343\274\272\316\263\275v\326\207=\005\007q\275\371W\002\275\370\300\346>D>7\276.\245\240>\2748*\276\256s\203=\257A\034\276AV\211\276\211h\207\275b)\343<\017\223\003\276o\352\216=%\265\336>\245\021\346=\016\233\224=\201\231\204\276N\313\316>\272v\263\276\007^m>%\225\352\276\364#)>X\315\233\2759c/>\245y@>M\274{\275RlR>\230H\270\275|2_>\322\032s=; c\275\355a\006>\013\010)\276\005\245q\276\036\327\247\274r\326\324=\315{\021>0E\231>\010p{\276!]\356\274\353\264\312=\341\351\345\276\206V%\276\343\003\252\276\322t\237>\370hA\276i}\245=\273\346;>\202\037\331\276\345w\206>\202\240\325>S\322z>_x\233\275\032\354w\276oG\010>\265\t\013\277\353\261\270\274\nUG\276*UZ\276\330\027\242\274\252U\350\275\312\266\251>;\350\374\275I\331\244>\315 6\276\232]\263>+\276a>k\325\206>\016\013-\276\267\247\343=\340\035%\276\201 \322=\245\310\034?\257\226\214=1\\\026>+\223\016?\371\375\264\276\226S\222>v.\331>\232X \276\263\264=\276\340\236\252<\306\243j=C\240\334>\372~P=\364+\235\2767\371(>G\n\304=\246\030\232=(>\367\275\333|\313=x\225\213>\022m\230=\252NV={\322\313\276\210<\237\275\342}&>W\315\327\276+\315\337=\234\315\217\275\016V&\275v\025\023>\267\316\340={!o<\002r\365\276\024\330a=\374\203\234\275\377\026(>;\0349\275\366\r\035\276\350\200\307=\307jp\276y\241\220>\304\353\227>0|\217\276n\304\004?\205g\027\275\'U\215>\006\304\263;x\272\023\275#\2039>^\221\327=[\242->\216\232\022\276\373\232\204\276D\320P=3\201O\276\240\345Z\2769\257\255<Dq\365>\341}\260>Bo\242\274r\245O>\2002\273\276\373o\232=\t\341\367=\020\365\357\275\361l3\274\336\256d\275\243\277\037>\376\354\273=X\216I>\263G\331=\206l\311\275\013z\305=g\001\324\275\311\323\001>\3627\270>h\377\323\275\247\314\022\274\275\r\'>\2221\022?\201q\225\274u\351\325\275\002\203\310\276\301\205\007>7&\226\276\274\367\350=\215s\351\276f\375\214<\035\345\327<e:\205\276\014\206d\276\\\256\211\276LE\030=6\356\216\276\224-\224:\254[#>N\314e=\017)\214\274\247\232\336>p\200\231=\361\352<>\351^\204<\211L\226\276b\316\245\2767\256o=jA\201\276\341\3600\276\333ZL>\033G\021=\320{\354>G\241\037=\217\025\006\277c^\311\276\347\300\351\274(\025\003\276\270\360\247\275Ml/>\321!\r<\310\351*\276\336\2670>T<J<\266H!\276\203p4\275\310_\320<LG+\276+\335\207>\362N\233\276\212\331o\276\334\006\021\275\231\025\271;\232\352\313=\275:\333>\036\'G=S\370w\274\226\364f\275\3320\327=\013\021\021\275\223\005d>l\202b>\252?\027\275\253\274\214\276\024A\032>\272\352\303\275\\\216L\275z\327F\276_\252\345\275\314e\"\276<!n=\004o\360=\224\377\255\2759>?>\023Lu\276\321P\221\276\377\203\026>7\217\036<\216\370\242>\037\352\377<uU\263\276\025\027.=\360\334~\274=(\020>D\347\232\276>T\354\275\272\254L\276\245\210@\276\331\274+>\235+\r\275Tst\275\222\375\030>?\310,>t\326\233>\004\234M=N3\352=\222\201\253>\343Qq=\200\376e\276\357Iu>\222\2476>\364\177\203> \247\263>,m\223\274kE\217=\257T\013=\205\331\272=\277\355\020=\010p\310=\267\250\351\275\271~\001\276q\314\301\272\003N\254=\235Ux=\330\272\025\275\367\227\361\275\257\276\326=\265\213\036\2762h\006\276\216g\007=\272\2124>\341Q\'>P\034\327=u`\033\276\346\027\347=\364\377m\276J\302E>\354\266\366;E\253\324\275d\006\000\2765\347W>\030s&=#\336a=\225\202\336<\310\207]<\324\235k=\224\247\005>\326\013\220=\225\320\321=v\361@=\274T\246\275\2251\262<\263\232\235=\367(Z>\331\273\232=+bo\276\322NL\276\010k\327=\261\030\037\276S\224\242\275\263\004\322<Hg\265>UL\355\275\r\356\232\275m\334\326\274\373\244\202>\021\307\221<\304\034\027<3\014\242\275\273\2751\274\035\003J>\220\n\237=\311\351T=\003\252\200>nD\200>\201F\253\275v\"\271=w\0270\276\272\262\232>GM,>\337\246\005\276\215^\247\273H\253;\274\366\262\002>r\345\310\274\207H\023>\246\331\227<}\014\310>\347A\233\276\377\237\372\275(k%\273\233\037`\275\017\233\204>_\313\224=\006\202\345=N\016b\276\326Xl\275\345\022P\274q>\305\274\033\344B>6b\004>b\245B\276Z,\262\275\223l*\274v:f\276\014\025&>\0216\256=\372\035\323\274\251l\014>n\203\223\276\037\325?=\201\214w\276\r\257\025\276A\227Q>\221\260\251\274\033\213\240\275!\345+>\033\1771\276D\305>>{t\257\2735@<\276xb\\<\2353S\274d\374\330\274r\254m\275(\020,>)A\024>\333\2757\276\257\3311>]Y\003>\266\274\203>\315\217\243\275\273\017G\275f\004\355\275\005V@>\374\371\260>Y+\334=%/\355=\232*\263\276~W\202\276P08\276\331{\341>\212}\243\276[Z\030\2755T\006\276\305\r>\2757\244f=\365\"Z\276,\007\261\276\027\226l\275M\205\036\275r\202\n:s\253\033=P\177a\276\320L\237<\257,z>&\343R>\332\330X>\223\230_\276\315\221\376>\016\027\257=\360\307\034>\215\330\017>5\021\020>\357\233\345=\3147\'\2768\237\024>_#\203>\366\265\327=\365\372\n\275v\354\013>j\026\250\275\370\331\202\276\036\\J=\005\304\213\276\214\314\224\276v{\333=#\034\350\275S6\236\275>\355\252<\023w\022\276\37033>\221\327\034\275W\242\324\275\265g\025=4\313\305\272\227\265\032\277\234B\'\276\3676\367\2733\360\346\275\371\254\356\275-!>>\256\370\017\277\033\3731>\227\272\251\276\351i\263\276\321\361\302\275\rU\016\276\340g&<\220\276\331\276\034\211n=\274\362j\276\367\267\000>\244\0302\275\225L\241=\275r\377\276\230\000\211>Q\235\264=L2M\275\276\222~>hs\021>@\355\262\275\034\013=\276\013\316i\275\001\t \276\302a\362=\214 \261\2760\225\231\275\201\226\232>%\230\033>|0\203\275\317\364u\276{SL\276\033\330\225=\205r\206\276ih&>\3638\245>^A\014>\210\367\245<\003\363\277=^\230\031\275yH\340\275\3036\276>\247D\330=7F\014>\2508\t\274\274\017\000\276^\342_\276\313LA>A*\332\274R\023s\276\016\305\216\275$P\310>u\323\275\275>\217\332=\331@\247\276x\030U\276\231dS>\262w^>ux\312<\025iM=7~\365=\200?0\276\024.\247\276\244\233\357=\373\020\363=\274\266\330=\275\355\345=\270\376\276\275S\302\271>qI\253=\252Fz>\026\006\274\275\346\277\273\273\310\362\005\274\322:\354<\035*\326\274\347\374g>p\200\276\274\330^\352>>T\t=\2612\225<\245\351\364\275\347\004\t>\262F\241\275@\256\242\275?{\264\275\262\344\310\276g\324\277\276D\320\037\276\204\340c=Jj\213\276\326[\225>E\270\351\275\314G,\275N\237\274>\227=A\27558\267\276\226\277\t\276\"X:>\010\236\274; 6E\276\311\221\244\275x\270\343\275\333\270\010>d\267\373=\221\263s>\246\204\252\276\227l\234<\370c\236\275\360F\000>\023\343\233>7\307\217\274\333B\352=\260\362\323\275G\222\216=\211/\230>\342\351*=\211\315E\276\264\323\016>\213\005\325=\252\"}>L\327\377\273\326\336D\2761\326\t\275{\307s\276?;\271\276\317\257\227>Z\234:=\261\272\177=\232\027^\276C\'\271>d\303\213\276\337?\253\275lk\320\276\032\352P>sG\236\276\317\321\275=\363w\002\276\223\265\306=]+\364\275@\204\277\276\007`6\276\303\'\302\275=>\220\276\333m\325=g\266\245;{\350\227<\212\034K>\326\256/\276\033\343\254>Q\023Y>\375\223\002\276\205N\177=M\227\313=?\333\227=\246\3432>\021\340B\276\231\356\227>\014/`\276\270\2571>Q\037\237\276d\225\017>\237!\024\276\215\205\021>\212\345R>H\255\224\275\371\340\032>\2347\221\276\2351\027\275s\362D>\036H\021\276\376t\300=1\367g>\\\331\313=\266\336\251>X\376&\276\305|\010\2764 \203\275\200w>\275j\202:\276!\206F\276\334\275\330=\252!0>u\343\"\274t\222\230\275\365B\013>\310\001(\276=\237\211>\250\255i=\302\3244\2764%H>\347\"\300<\354\013\300\273\374\346\302\275kq\\\276\206\245\333\274\213\246R\276\r\332\020\276\025~\255\275A\003e>\327z\342\2755a\243\275\223\030\224\2755f\034\276D\332*>\346\353r<5\255\205>2\003\263\274He\221\275\375\304\244=\236\242E>\374\337\263<\326>\303\275\226\250\177=K\2538\275P\357\t>\300\034\267<\225\t2\275\373\237\236\275a\021\354=\231\212\270<\220e\261<\327\360\363;##j\276\2745e\276\034q\235=O$\005>g\300\350\275\036\035%>\237\024\213=\335\243\241>M\216\213>\214\252\203=\302\261R\274N\216M>x\362}\276\375e\006>\304\025W\276\267\231u\276/#c>\033\233\037\276y\2529\276\033>\360=\320\350\017\275\017\237\017\275\351\326\255>\341\037\032\276\274\213\035\276\242\365\277\276\035\013t>6\272\375\275\231\364\036\275[RI=\305A\255=u\255\317\275N\267\017>$\3455>\253*7>\013Q\006>\336 &>\\\213\233<\376}\230<\204\000\264=\205\212?>q\326b\276Z\257d>\005\334\006\276Sf\266>\350\020\315\274\257\353*>\331nT\276R\325\372<\235gI=[5\017\275r\365\220>\004\317\354;b\022\005>\242*\371<\001/<>\304\344P>\347K\303\275S\247O\276\237\335\215>\355\204J\275\347\031\233\276\r\370\203>Zk\367\275\333\202\233\274!&\312\275\373\330\326\275;8\225>[\354\023>0\307t\276\225\026\214=9s\215\276\3338O\2748\355J=\366?\\<\252\277\351=\304=P=m\316\023>\332=G\275\020w\227\276c\303\224;9(\025=M\222m\276\350\017\323\274-\233\002\276F)?\276\0367\204=\207\014\276>\245]\240\276\243\221-=O\220@\276C\343\021\276\033\337W>.B|>\021\272\306\275\252\233/>\367?b\275\320\371\023\275\340:\035=;j\253\275+\334\374\274<\260\341\275U\371\234\276\233\'\315>\033=\255>\2726\014\276\372\204=\276\340\'\234>\327\273<>\205%\005\275\200A\235=\330&/\276\304\366~\276\\\215\211>\304\236\001>\265\257#>-\357[=\n\201\236;e\247\331\275\315\276[=\232\211~\275\003\"\325<\005\275#\276\353A^\276j\277\356<\325{\337\275Ha\031<\341\304\350=|z\244<M\272\374=\224/\223\275wB\010\276\245\306d>w\272\215=\n\'\374=v\260\227>`8\001>\256\370\320\276\311\373\327\276\216\007\005?Hf\251\276q\363\250\276\270\n\242\275`c\314\276\324\343>\2767\237T\276{\327q\276\036f\267>\313C7=p\372;>h\241e>\365\366G\275)\324\234\276kc\014\277\323\265\335>\211\335\363\274\r\350?=\206n\003\276\013\027\257=\330\261\016=3F\020?k9\306=l\276\365=\007\307\342\2754\277r\276uP\021\276v\265\251\275,\2146\276\\OE=\237>[=v\301~\276)\357\014>\345\327B\275W\003\200\275Y[\221>\253\261\351>\331\354#>i\002;>\363\376\242>\004>->\214\252\024\276\320DO\275r\177\250\275\3129\264;g\371u\275E\206\025>Ym\246\276\366\213\252>\334\265\207\275\'\365\016\275\250\\\360\275C\277;\276\034r\207=*P}=\016n\301\273\305)\203>\210\337\t=r\242P\276\240\251\357=\352\r\213>\360&\216\276\237\0060>\276\332\360=\210\332\275\275\250\266\212\273\232}\237\274\313%I>\312\007T;\t6\247\2761\205\371\274_\252\211\276\323\267\312\2750\207\006\276\375\321\303=\005\005\207=4\3071>\213\204\214=\247\3043\276o\237\240>(\031\266\275p\362\353\275)\000\311\275\200\367f\274\t3\206\275\265;,\276\2478\312\273\'0\274\274\227\004\017>\351\370O\275\316\204\022\276\213\321\201;l\006g\276\031\304/\275cv\014\276\274%\370\275\251\364{=\304W%>\234Y\301>\3021K=\372\2535\276s\300\307\275\346\202z\275\250\347Z\276V\211\247=vH\031:\376\370\000<l\006\'\276J\216+>h\253\336\274\207\223\027\276\236\341!\275\246\317\033\276hr\341=\307\203O;\033!j\275\333*\253=BfI=\2074o\276o\350\343>\347\252I>&7\377\275bZ\301=\201\t\006\2750\310\363\275\326.t=\245\177\230>%\363\004\276\220%\231=\022\364\231\273\240\010\202:\313D\035>\246\240\347\274\205\242\333\275 \201\200=\324l\242\273G,J>\313\022\367\274\036\267\224\275h=\234>~cJ\276\034G*\275\360wW\276\204\206\367=\364\226L>\260L =\177x;\276\017d^\275\327\204\241\276\350e\227\275\224\247+<\032:\225\275K@T=O}\004>\327\350\367<c`\024>\332\367\305\275\0026\264;m\024\212\276\347\200\220\274\346\343\255<h:\216>\352\301;\276\\\206%\275IB\217=\216qg>\231r\245\274\351d\244=D\220\037\275;\330q<R\220\020=\307\034 \27697I>f~-\276\364\321\220\275IKU\275J\243\270=\357\rt>\376\0100>q\200\237\275\320h\207>\333<\325=\361;\035>\033\255\276<X\301r<~\277->*\027\333\275\227\024\036>B\251\t\276_\310\301=,K\215\274T\260\336<\370\254\203=a3b\274\263\315\213=\205\302\177\275\334\207\372=\010l\240\275n\342\274<\320G\215=5o\246\274\rGm=\364AA\276\251\036\032=\333\007\255\2750_\240\275\376c\230>*e\027\276i\343\010\275a\227\337<\232\374\240=\3220q>\202z\272=\034\270\'=L\3014\276\027L\010\276\\\025\366\275\234\2322\275\320\214A>\034\312\021>+\242*=30\322\275\357_\351<\002\"\016\276(\215D>aX\372\274\037t\017\276\007\235b\2760\335\200:\362\372\244;V\007\275\274\324\321w=\217\254\t\275\332$\237\275>(6=\354v\332=\331\026\034=|\303\014\274O\306\005\275\032(p>c\2426=\357o\337<\004p9<\200M\037>D\223%\276bJV>\214P\013=\361\261\320=\033\001\016\276l\341\240<\002\276\240\275y\252\210=\263\260\027=\000*l>*\031\234=\330\330\n\276\256\217\316=\331c\200\276\347o\213<\216\3706\2742\207\353\275\027\366\023\276\342\200!>\216\210\207<\304F\221>?\337%>\233-\230<\245\324\327\273\007j\032;\305\326#\276\263\253\377<\233\273\255=\322\344\312\275\2335\376\275y\365\273=N\006\013>\205\352)\276+\306\'\276\265)\263=\277#\n\274R\240\337\275$\320f>\251\300\316=r\376!\276\363p\007>9\340\223=v\201\035>\031\343\306<u3\235\276p\257 =\354J\266\274\2327\227=\226\225a>\251c\'\2757\337\266<\341n\374=\014\236\004\276[Hp\275\366\232\t>\214\227\345<\335\362\202=\302<\366\274\037\204\337=\246\225\301<Y\316\210\273q\263\035>\374{\354\275\300\317\n\276|\014s=\236\222\354\273\267\t\217=\371\017\002>7F\236\275\330\235V>\016\267\006>\310\331e=\353\t\006>\277\333\217\275\0030\305\275]G\023>;\264\207>|\365\003\276\3661\023>\006\020\326\275Sx\205=\023\027$\276\\\303\251\275\261\361#\274\306\242\255>\353\035\004>|\312\177\274]\316\241=j\034\240\276S\221F\275r;3\276\251\023\232\276\330+Y\276\215\201\263\275\350\345\347\274\r%\037\276\356\n\374\274L2\272\274\014+\010\276\246r6>\210\276?\276\025\251\371\275*\3551<\350\0063>\212\356X>\206J\266\275\374\304p\276\334`\316=\201^b=\256\315;>7\220\325=Z\\`\276c\341\253=.\007[=\026I\325<\n]\365\274\017;\303\275|\267\300<\325\236\234=z\004\010>8\237\211\275_gt\276\237w\273=\370\335\004\276\355\tQ>\206\272(=\344%\014\275\372E@\276\177\023\354<\356x\374=\354r8=\017\365~>K\235\003>\214\244\272=xZ3\276j\236\205\275O \021>\352\252\025=\034\013#\274\246(\302\275\367y\020\276\001\022\241>\347g{\2767\374\253=V\254\203\276N\376\227>5n;>\036\213\235\276\356\324q\275\240p\365\275\227\250\023<D\033\365=5\240\342<\330\362Y=\233\276\254=\375\352=>p\254I>\306\303U=\022\371\347=\033wt\274:\301h=S\037\241\275[P\366\275X|\202=\272\234\310\276a|\202>\207I\030\276\306g\226\275\241\002\005>0\177\215>\256\260H\276=\265\021\275\220N\006\276,\247\330=\242\231\247<L\350c\276\322\271\037\275c;d\276\260\n\221>m@\246\276\371fs>\020]\227\276\333CT\276\371:\244=Y\251\307\275l\341\233=\034R\343=G\354\231=FGk>2\331\013>3\205\335\275\036\222\371\274\351U\300\2758{\210\276\330z\227\275v\006E>\242\321?\275\006\310\251\274\375\354j9\3214\227=Y\201_\276!Y\275=\246\030G\274e\n$\275\251,8>O\302\020>\315K\337\274\330\346R\276\0335s\275=9\226\276\305I\235=\340c\003=\336J\242\275\330\024$=\315\031I\276ZOC>\323\355\273\275]8I>\203>\255\274?\357!\275\263\033\256\276\275\003\005\273\250\323z\276;\206\221=\375\005!\276xj\225\275\212\032\203<\t4\275\275\007\370\331=\037\027\356<\321&\002>zpT\276+3\017>\375Z\310\276n\326\234=\221U\033\276= \177\274L\013\366\275\364\245u=\253\225`>\201\315\022>h\272\013\276\234\377\025\276\310\334\224\276Ka\371\274\362\236R=\207$A\275\300Ra\275\346\007\273=\302\233i\275F%z<N\207\346=y\327\226\276\370!\322=\327\274)\275\237\262\220\275X\351*>\\]\\=\277j\275=\373G\220\276\003\\\226\275\323\237\215;3\233\317\275\232d\337<\345\354\035<\r\373\314=_\214\033\274\252\360>=\244\274\205\275\240<\306\276\324mE\274\202\003I\276\037\373\375=\257y\213\274m0$>\243\274\r>pm\323\275\nW\036\276_.\001>r\322r\276\004\2512\276Q\000J\276\256;\017\276\265\244z=N\023\306<F+\005\276Eh\010\276\036\366\003<\305\340S\276\341L|>\3064\227\275\177\320Z>\317\2506>\333>\234\275\232D\321\275^\335\314><\224$>b\373\r\275\347\032\341=\2155C\276\001\272[>|\226\357\276;W\007\2774!\327=,\013\302\275\225\221\373\275}\304$\275P\200\020\276K\323}\275\224\023\235>N1\225=\332`:\276\r\277B=\nW9\276\327\030B\2764\245\005>\033\313\371\274?\222X\276K\335\t\276e\306\013\276F\346\277>\377\244\253>)\032\305<*\"\t\276 \302\303=\3600@>\3763\346=\312\000\022>\'`\036\276\235k0;\221G\014?\235q\024>n\363\035>\000ks>J]Q\276\356\246\027>\246[\207=\200\332h\274\335\177\345:_-u\276\031\020\225\276\267n\335=x\036\326\275Ai\244\274\247\276.\275\332\000`>F+\r\274\323\375\237:G\261\262=}\177\212=\204\002\\=!\363s>\361T\235=:\377\300\275\203\010-\275W\340\221\276\324\313\024?\330_\370\275kO@\276$g;\276\354\016\261\2769\303\377\275c;S\274\016l\\\276\205V\027\276\315\345\213=\374\251\360<\202}\023>lO\215\2767\351+\276\357\037\205\276@q\322>\307\2112\276\004C\372\273\326\227\303\274\223\243D=\347\321\245<\264@\257>\364\206`>\306\376\r\276\2014\303\274\231v\301\276\220\020S\275\037\313\207=\370\002\357\275\030u\206=Z\206\"\275|V3\276\342\270\216=\314 6>\355\242\360;\204\033\027>\327=\035>\002;;\275\215~\324>Y\342\233>r\311)\275w-\353=\217:\265\275R\252\270<\014\261\373\275\210\003\021>a\356X>l\031U\276\353j\242>\266\221\005\275p\201\204\275\375\"\002>P\001\276\276P\315\236\276\0248\256\275\360y\250=\365\375\230>\035\177\246\275\304\2621\276\230\000!>\013\300\235>\230R\325\276\003\344.>\255\333O>\016\273~\276=\227;>\372$\252>F\361k\276w1\205>\017_~<E/.>\003\361I>.\263\024>S\016N<\350f\r>\225Z\377\275\020\234\254\273\302\020\261=T\356\245<V\350\261\275\343\335}\276\373;\207\275\226A4>`\355\000<\227 %\276u\201\233\276\253\317\240\275\247\010\331\275\346Ea>\362P7>\247\205\240;\212\354*>\377\037\345\275\353\322\004\276\236\345\021=O~\251\275\302f]>]\200\026>/\307\363;\000\002\340\275\333\2767>M\022\207\275\227\275\213\275\375\010\013>\307\025w<y\241\270\275\324\270\200>4\300\333\275\202\231\220>\r\020\322=\373\000:>Y\343\027\276\236\202\233=\202,\265\276|dm\276L\261]\276\333\'\037\276\371\334\214>\n{\010>\266\001\004\276ZF\272\275\354x\004>jX\005<\251l\013>\203\302\030\276!U\253\274v\232n\276>w\027\274D\rQ>\274)8\274 \033\211\275T>]\275\326\333\021><0\305=v\262N:\017\302\254=\320\200U>\016gf>%\336\'>\362\250q\276\217@\326\275\327\250&\275_\376\346<0\201C\275\312\227\t=\303\344\212>\322\206\314\276[.\007\276`e\306=5|\277>\221\r\010\276l\274A=\014\307?>\335\232\270=;\251\206\275\341P8=\177+J>\3525B=\r+e\276a*\201\276\300\341\007>\365\234\005\276\0062\224<\337\231\345\275\272j\257=\241\204\002\273\303\345o\276d\377`\274(F\345\272E\256x=\335r\225\276\303\340@\276\245$\004>\377%\221>u\007\240<\025v\356< ~\374<1\236\323\274HM\"\276\262\007\231\274\'\331\233\276\027E\004=\241\310[\276\335\212H>Y\001F=`\266w\276]\005\277>\370\367f\276\232\376\016\276F\256\271=\362\342\177=\210\364@\276a$U\2762b\014\276~\365\223\276\262\223\210\275h\236c\276E\266/>\003f\253\275\246\207\000\274\2035x=ih|=C\031\037=c\264\227\275!G0\276;\360Y\275T 0\275c~\304>\273Y\017>\273:t>x\242\001=\361\205\274=\374r\027\274}\021\253=\227F\007>\236)?\276\235\222T>l\275)\274\227\276\220\275-S\271=\003\177_>\265J\034>\371A\037\276\375\375\227>\300M\221\275\nZd\2764\311\323<\371\016P>\213\005\030>\034\206S\276p\247\371=\200\271\021>\254\377M=L\305B\276\255\246\303\275\302\3651\276\177\257\r=\255eF\275t\317`=\n\006|=\255d\251\2764\233\240>_i\263>^b~\275\377E\241>\256\237\221\276N\260\212\275\3424Q\276\273\361T\275\000O\265\274-k\213=\304\207\353\276\235\375\'\274\244\344\031\276\366\307\247>o\234\251\276j\367\377\275\034\021\213=\340Z\343\273\017K\267=S\355\226>\n}\300\276mh\025\276\272\232\013>p\033]\276W\355\327=\254\023\232\275\347B\221=-u\316\275\330(\021>\343\226\006>\246\033\034>\346\240\207>\2669\253\276/\340$\275\231\205L\276+^\360<Q\023[>\272\365\276\276*\030\330\276\212\0014<\2273\271\276TO*\275\272\365\316;\315\034c\275\325\242@\274\203\235\365\275\312\277\214=\274\212\252\274#pi\275\212s\327;-\274r\276\332\260\361=\203t2>\236t1>\246\r\r>\3222\001\276\233_Y\275\304\237\353\275\361\262\347\276\337\353\265\276\340\262\230>\224\033^\276\2143+<\213[\002\276\302\177!\276\3725\263\274\006~\"\276\221\324\330=\354}:\276\373\225.\275\367\021n>\2302B<\363!\254=BCm\275\036z0=\355z:\276B\020\324\275\231\307\220\276x\351\306\274\t\t\314;:\037\"<<S\200>\230\246\232\275\275\240\244=\344\351$>\177\355\264\276\277y|>qhP>x\226\251\275\2657d\275\013?\334\276\354\0256>]m\214=H\307n>\342#.>\237a2>\365\025\341=\367f\211\274g\306\225\274\036t\265\275\240\312\246\275F\\_:Do\320>\336\260\363\273NE\277\275\r\363!>\241.\243>p\361\374=\226\233\223\276\023\021\327\275q7\276\274\346\231\257\276!\327^>\352\314\023<n\031\216\276\250H\376\273\327\tb\276\251B9>\334p\227\275\006s\205\276]\305\352<\241D\240\275\r\363\031\275\325\036\340\274S-\014\276d\332a9\006\315\033\276\205\2455=\241r\344=\t\372\314\275\237\025\225\275x\262o\275/HO\276YF9\275K\3126\275\232|~\276\254Z\321>\236\260\323<\212z\031>\254\261\361\274\030+`>\374\013\253=1h\234=S\325\001\276d\366\026\276\022\013\352\275\325\356\325<R\016\365\274yq/=\007\032|\276\267S\001\275\337[Z>\271\241\003\276\t\3064\276\001\351\210\276\246Jl>\351L\337\275=\034\020\275\000\324p\276L\002\247\275^l\003\276;\207\311:\013\027\257<\326Ed\276Oi\014\276\373\317\266\2742\304A>\202A\274>Rb\271=\331\357\210=\204 m=\211\335\335\275d\372;>\220\026>\276\200\024\211\276\362Y\320<\272F$\276\n\352\264\275 \276\212\275\246\370k=\033l\224\273\230\270\020\276\n\227(=\340\3208>\200[X<\353\311\017=\261#\275\275z\264`=\375k\253\275\303Z\306=,\364}\276\177\003V=\345\374x>\363\021@\276\244\363s\276n\376\330\275L\334-\276\242\016/=b\371\214>\223\360!;9/\213=\306\331!=5\365\275\275\272l\224\2756)\277\275\311\374\200=\330\211\236\275W\324\214\275Cf\234=\222(h>\365F\227=\035\204\226\2766\374{\275gx\235=\025@\205\2756\370\250>h\357\017\276<\005\030>\322Ue=K*\225=\033W\343>KS\035>\246x\035>0\321\275\274+5\202>\223n\201\275\312\377}\276\360{\206>\3776H\276\332%\006<?\347\030=\223\335t=\002\007>\276\005\034F<\215\227\177>\360\274\217\275TN6=#\265\204>#G\016\275\3040\346\274\334\227\234>\365~+\275Lc.\276Q\362\201>&\021\253>\027.v\275\230 \372<\357H&>\246\201\327\275\335fj\276\036\213\215\2763eI=0\032)\271\245\350\270\275\244\277\031\276\022\331\321\276\\\327\006=\032|\034=\025\352\230\273/0/=JZ\275\275\347\r\303<\302\373\3327\035\316\217=U\223\247<\034$\221\275\204\021\020\2751\234\213=M{\227\276\213[=\274?L\030>a#\213>\337Iy\275\222p/\275\365\322C\276\352\214\237=\270t_>\022&\223\276/\t\215\275mv\365\274\323)]\276\006\215\216>\222SX\276\374:\303=\225=\341=\266\351D>\204\310\212\275\264\365~>\241\325n\275<-{>\2615M>pl\330=\207\2126\276\267\242\237\275\260\242\267=\3212\253<\2669\003\276dm\253\275\250\361\221\276kH\017\276\271\325\322=,l%\275#\020C>@@\216\276\311\024\324>\223\337\206>\252\325\204>5\317v\2764JN>\374\024\325\274\313\235\304=\200K\242=\307WZ\2766b\237>\000\235\035\274pup>*b\254=Y\037;>Q\223\357\274u\267\260\276,\357x\274\220\021\234\276\305\325\017>\000\014\035\275\035\271\234\275\240\031\010>=\367J\276G\000\337=\247)\210\275\377\340\220>\026\376\027\275\226\n\013>n9J=L\260\343\276F^l<\227.\346\275\031\371D>\274\362\351>\222\357K=\205\230\207\276\256\337W\276Y\2122\276\":\253\276\025\246\022?\224\344\277\275!\016\305=\346\224\236\275\204\302i\276\273\307\360\274m2\273\271\016\374\003\275Gfh\276c\363\260<\363\342$\275\213\265\213=\331%\026\276\036\312x>\020\0211\275\226\177\346>H\366\222>\351\335x\275\031\027J>\337\007\221>\222\365\023\276/\3731>T\337\257\274\024\323\312={\363\036\2768bk=\266\231\356<@\035\265>\301R&=\037\245\025>O\373^<\017[j\276\332Oy<y9\262\276E\275\205>\330\267\252>\017u\221\275\241x\001>6q\362\275D\004R\275\240\210y>\317\000\000\274_\016(\276iw\n\276X\335\305=O\235\227\275\240Tv>\031\265\262>\366\370\332\276\014\361\300\275%u\235=>\037\211=\347\231(\276\350\363\313\275\301e\202=\274\275U\275\267\251\320>\033\314.>D\036i\276\013 \001>s\313\372=\360\247k>\026\326\026\276\311#E=l\013\322\275L`\n>\253>+\275\211\252h\276Sb}>\357\337\362=[\267{\274\025\001!\274\010]\214\275\177\027\340>w\021\203\273qj\244=p\304M\276\200\335e6w\003o=\204gS\276\256W4\276\377\242\362=\030e\213\276C<\271>\033/\365<s\370\363\276D\352\215=\371\264\210=!bf\276S\002\275>\321\256l=Cc\221\276\023\366\375>\035\241n\276+U\207\2767\300\006>\r\256\037\276R\356o\275\262*w\2757\357b\276>Y\036?R>\013?\355\352w\275\227\001\230\276\006x\374>\337\034;\276?\341(\276\206\205\313\275[\350\\>\257\210\207\276\326\212\027<\004\343\343=X\202\000\276\277\3235>\252\300\374>]M\261\276\344\025\200\276l\221\025\2765z\243\274\030\304\270\276H\354\025\276\376;\340\275\310\204|>\242\233\364=\354\034\006>\260^\275>\204\200\270=\216?\023>\370\260\013\277\033\257\302>\303\036\314>1\345\232>\030\335\354=C\327\324\275\202[\351\2766\021\360\275\322\n\016?~\r\005\277\354\224\250\276U\340\000?\023R7\277C\364\205\276\323\305+>\356\233\217\275`RI>MI\201>3&\034>\262yF?{\240\353=0\256\203\275_\355\014\277\2108\030?d\201R>\361\034K>\337\301h\276\274\313I>\354}z\276+\027b?8s\007>\n\200D>D\314\000\275\321\362h\276>\371$\276\203j\211\276\373|*\276Zs\357=\334\027H\274\251M\214\276K>\205\276\301\036\230>\272\'-=\263*\261>\231X\254>\003\371\331\275\230\375\315>5\2344>\223mf>\033\237\340=\270\270\270\276(H\355=\004r\005>\\\312)=\0329\030\276\010X\326\275\r\274k=-\202\322=\220\354L\275z\016\240\275\014\330\203\276\263\264B>\267\222\344\275\327:{\276_Xz=\341\327\267>F\261c>\374$\310=|\235\022?\351\206\210\276\344\371@>0\364\035=\273\252\317\276\352\276\027>\370\373\223>\026\231\032\273\201\270\203>Om\275\275\313\341\201\275\373\231\211\275\r\265\035\276\224\017#\276\036+p\275\266\254.=\345+\305>\272\177\265=\224s\304>iCO\275\"\214\267\276\212h\206=p\333\021\276\202\366\200>[\265\033\276\023B\215\2754\226\254\274\000\230\257=\212\205\254= \346@=e\020\271>u\010Q>\345i\321>\340!\317<\317w\230\276\360\017\354\274DX\026>\223\354\030=\265\255\000>\302\325B\276\330\027{\275\223\251\007\276\330\306\274\276\236\2571<\350\260\027?!];\276\312\331\232\276\302\202%\273\345\356\242=T\2263\276\234\224\027\276\017.\327\276M7\362\274\372\314\236<\027\254\273\274f \204;\013\342\023>v\202\237>\204\231\336=\323\372h>\024WH\276Ls%>+&\201>g\307\330<\327D\005\276\000`\242=\213\010\200>\216\251a\275\2662\364\275\2378\334=\337\003\017>\000v\215>\023nd>\356\336\n>\316\230w=\264\333\264\276\201\301\350\274\241\245\005\276\2439\345=B\213\370=`qe\275\013GE>\324B\336\275,x\264\275\033Xv\275\240E\214=\322|w=\331\032e\273\207\361>>\206s\377=\241\246.>\034\212]\2759\315\257<$\340\213\276H=\310>]{+\276\3169\250\275\337\335\005\275?\232\033\276x\t\241\275\177\301\353=\002\261*\276M\247$>/&6=\304\035\037>\323l\362=S+\362\276\264<\346\275\024f\306<\232\375\207\275\353\034\013>\372h\234\274\023\366\341>Q2\373=\024(I\275\311e\237>\343I\236\276x1\243>\362\212\352\274\247p\n\276\206\261\331=:\201\221>9~\023>;\213\367\274\341\317:>\355\023\014>lu4\276\014\034\225=\215\001\243\275\236\334\022>\372\330T\276\334\310*\276\306`\367<\366\004,>0\005h\276\215\351\243\2748\333\030\276\336\240\036\276\024N\201\275\215\260\'\276j\204E=\251\037\000\276\322G\257=\242k\300=H\"&>\236M\274>~j\360>\352\224\000\276\234mm\275sB\223\276?y\253>I\333\317\275\307e\356=UJK\275<\346\010>\331/\217\275\230e<>\275F\005\276\030\301&=\007\254\237\275\250\375\357\274\3725\013>\340j&>\371\320\364=\327\312\225=\0163:>Z\225\226\2748\033\010<\231\273\363\276\302\375\212\276\204\275\035\276Z\030\244>\366\036\307\275\017\360\345\275\210\027\311\275\370[\217>\007\"\376=\003\002\346\276}\214\031>\260\327\263\275\031v+\276\\\202>=@\t\354=pV]\276\374t\034>%\312\217\276\350?j\276\376\363\342=\010\365\351\275\312\212\223>\201\2017\275\"\316\271\275\375j\215\275qM\002\275R\342R\276\005\322:\274\023\205\240\276\374\261\265=\0173\030=\014\256W\275M\342+\276\333\017\037\276\260\277Z>\316b\240\275\252\025\001=\232\376j\276\276\363.>\216\254&\2758P >\003\017\274\275\3165z\275\376I&\275\330DU\275\344\023\257=|\315\002\276V\"\205\275\362\374/\276O\036\"=Lf\265>\333{N>\376X\224\276h\263\227\276E\344\201>\316\231\276\274n\322\'\275,\367\205\275\026\246\267>4E\253=\004\354\300<\334\232\211<\220o\363=\2349f\274\035\177L\276k\301\377\275$9\031>i\374\010>\264\236\317=xj\310\276\235\233\357\275\036\3377={\313\323=\303d\274=\367\251\261\275\t\207\225\276\'\225->G\243p\276\010\305\207\275\244\245\001\277:\272\315\273\3708w\273\033\205x=_\307\340\274\261\212c=\363P\371=s2s\276h\034\233\276\313r6<\026~\215\273u\213\004>\317~|\275:L\327=\314\316\022>\246Mr>Q\323\353\274\326J\337\275m\032\257\276\231\360\213\274e\034\t\275\343\245\023\276\227\026\376>\314+\002>\304\\\217\275\013l\346\275&\342\324=}\014\305\275\314V\003>\306\020\334>\270\212D>\376Y\374=\316|\275\275\257|B>\231\"\236>U\303\303>\276BN\275\021\0207\27676n>\367\030\207=\261Q\004\276c\230\247=\253\022O>n\303M>\221\235.\276\227\257\366>c\3313\276\252\231\257\275\325\360]\276\220\326`=\250\254u>6H\233\275\352D\347\276\343\203a>\233\347\204=\220.!\2761a\227\276\025M\022=\036\343\205\275]\261\312=R\273\346<d\304\211>--N\276\272\216\321=\303-\352\275Yt/>c)\210=+.\021\276\324\245\"=~Km>4\030\377\275\270\\\031\275\255\350\307\276\010\247\220<S,